<unk>	0
<s>	0
</s>	0
,	-3.06919
▁	-3.15263
.	-3.84499
s	-3.95842
▁the	-4.05882
的	-4.1216
。	-4.35208
▁to	-4.49782
'	-4.59775
▁of	-4.60205
▁a	-4.63009
▁and	-4.6995
▁I	-4.77153
▁that	-4.80842
▁in	-5.05347
▁you	-5.2356
▁is	-5.25667
▁we	-5.32614
▁it	-5.361
t	-5.42416
了	-5.4622
ing	-5.51287
是	-5.61838
ed	-5.61946
▁And	-5.64996
▁this	-5.66328
在	-5.66497
?	-5.68703
我	-5.73051
▁was	-5.82039
d	-5.86895
n	-5.88484
▁我	-5.94162
▁for	-5.97099
我们	-6.01145
▁have	-6.01671
▁are	-6.06017
▁with	-6.06391
:	-6.07173
m	-6.08338
e	-6.10179
re	-6.11656
▁on	-6.13679
▁they	-6.14849
▁be	-6.1705
和	-6.18346
▁my	-6.19436
▁can	-6.25227
▁about	-6.2803
不	-6.31058
有	-6.31689
人	-6.33054
▁not	-6.34619
▁So	-6.35772
▁--	-6.36761
▁"	-6.38314
-	-6.3974
▁我们	-6.40493
ly	-6.40536
y	-6.4173
▁what	-6.41951
你	-6.44863
▁do	-6.4502
▁at	-6.45601
一	-6.45605
上	-6.46948
r	-6.49056
▁all	-6.49574
一个	-6.50398
中	-6.51
▁me	-6.51351
▁like	-6.52301
▁people	-6.52345
▁as	-6.52992
▁so	-6.53564
会	-6.54365
o	-6.55042
▁one	-6.57604
▁an	-6.6372
说	-6.66359
er	-6.66898
▁but	-6.67097
▁from	-6.68546
▁our	-6.68923
▁It	-6.69677
al	-6.70376
他们	-6.7044
到	-6.71575
▁there	-6.77925
来	-6.78434
▁out	-6.80261
▁We	-6.81031
▁在	-6.81696
ve	-6.81749
ir	-6.82
▁had	-6.8237
▁The	-6.82386
▁he	-6.8262
这	-6.83146
▁would	-6.84759
大	-6.84959
▁know	-6.852
▁just	-6.85201
他	-6.85328
▁when	-6.85665
时	-6.86337
▁who	-6.86721
▁by	-6.87235
这个	-6.87474
被	-6.87483
▁up	-6.87684
地	-6.87981
▁get	-6.88804
对	-6.88924
▁or	-6.89018
▁them	-6.89366
这些	-6.90452
▁these	-6.90457
▁But	-6.92067
▁your	-6.92396
▁very	-6.93974
▁if	-6.94456
”	-6.94892
能	-6.95715
▁这	-6.958
▁were	-6.95832
▁think	-6.96007
▁going	-6.96457
去	-6.97936
里	-6.98253
▁more	-6.98664
、	-6.9968
要	-7.00223
▁because	-7.00449
用	-7.01777
“	-7.02809
着	-7.03577
▁how	-7.03595
▁他们	-7.04824
▁time	-7.05272
很	-7.05862
or	-7.08487
它	-7.09162
▁us	-7.09553
▁want	-7.0981
."	-7.09814
p	-7.10685
a	-7.10821
年	-7.13394
过	-7.14565
想	-7.15511
▁really	-7.16092
▁don	-7.16375
为	-7.16763
▁has	-7.19087
▁years	-7.19157
出	-7.19195
i	-7.1923
从	-7.19256
▁see	-7.19786
▁world	-7.2008
下	-7.20971
u	-7.21341
▁some	-7.21912
▁will	-7.22218
▁但	-7.22343
l	-7.23243
可以	-7.23451
▁make	-7.24486
▁could	-7.26135
于	-7.2664
▁she	-7.2739
就	-7.27796
子	-7.28396
c	-7.28671
做	-7.29039
▁你	-7.29557
▁go	-7.29809
也	-7.29849
▁into	-7.30344
▁been	-7.30728
es	-7.32619
▁actually	-7.33027
都	-7.33411
▁This	-7.33842
▁他	-7.34915
w	-7.34969
▁where	-7.35944
把	-7.36304
in	-7.36455
开始	-7.36869
▁did	-7.37063
就是	-7.37095
好	-7.3715
将	-7.37171
▁life	-7.38142
她	-7.38267
▁所以	-7.3849
▁other	-7.38519
th	-7.39496
▁但是	-7.39565
▁here	-7.4008
得	-7.40207
自己	-7.40293
一些	-7.40329
▁which	-7.40419
的人	-7.40424
▁now	-7.40477
多	-7.40617
▁A	-7.41089
▁way	-7.41342
▁而	-7.41407
▁You	-7.4188
▁Now	-7.41983
非常	-7.42504
与	-7.43532
最	-7.43908
▁then	-7.45349
所	-7.45691
▁They	-7.45847
个	-7.45875
le	-7.47325
▁than	-7.47477
▁her	-7.47838
更	-7.49092
b	-7.49132
▁something	-7.49669
▁things	-7.50416
▁back	-7.50938
▁over	-7.51364
▁no	-7.5148
看	-7.51941
我的	-7.51957
没有	-7.52298
en	-7.52926
▁his	-7.53743
那	-7.55261
▁“	-7.55384
▁work	-7.5586
成	-7.55875
se	-7.56101
▁first	-7.57089
"	-7.57956
▁said	-7.58
an	-7.58849
▁right	-7.58921
▁因为	-7.59045
▁much	-7.60789
ri	-7.60925
那些	-7.61715
▁those	-7.61731
▁new	-7.61732
生	-7.62689
h	-7.62699
ll	-7.62992
ar	-7.63199
比	-7.63588
▁got	-7.63793
▁say	-7.64762
▁look	-7.65324
ur	-7.65645
选择	-7.661
▁even	-7.661
▁two	-7.67614
▁thing	-7.67731
而	-7.67769
后	-7.67778
▁different	-7.68105
ic	-7.68111
像	-7.68845
▁S	-7.7032
▁does	-7.70397
▁take	-7.70583
吗	-7.7119
的时候	-7.71631
性	-7.72213
▁most	-7.72271
▁only	-7.73593
;	-7.73835
▁它	-7.74406
▁这是	-7.74691
无	-7.74873
已经	-7.75668
▁That	-7.75716
ation	-7.76095
▁kind	-7.76553
ter	-7.76611
小	-7.76794
▁In	-7.76982
需要	-7.77602
问题	-7.77813
g	-7.78116
不是	-7.78577
▁tell	-7.78788
们	-7.79116
前	-7.7926
▁also	-7.79348
▁B	-7.79352
▁她	-7.79642
工作	-7.79644
人们	-7.79646
现在	-7.79822
▁day	-7.80132
▁little	-7.80486
种	-7.80502
呢	-7.80546
▁every	-7.80551
it	-7.80558
st	-7.81271
什么	-7.818
▁need	-7.82854
▁down	-7.83003
▁He	-7.83201
力	-7.83647
我们的	-7.8365
on	-7.84306
ion	-7.85215
▁good	-7.86388
这种	-7.86598
还	-7.87007
▁What	-7.87533
给	-7.87602
▁然后	-7.87604
▁lot	-7.88171
▁是	-7.887
心	-7.89006
▁around	-7.89032
k	-7.89401
知道	-7.89558
。”	-7.8967
所有	-7.89816
你们	-7.90357
▁re	-7.90489
向	-7.90683
▁show	-7.91373
者	-7.91944
你的	-7.92117
▁这些	-7.924
手	-7.92633
点	-7.93103
▁come	-7.93349
一样	-7.93675
·	-7.93962
一种	-7.93963
▁put	-7.94028
est	-7.94053
家	-7.94225
很多	-7.94419
天	-7.94892
▁being	-7.95046
▁start	-7.95173
可能	-7.95954
▁现在	-7.96139
化	-7.96511
可	-7.96617
▁never	-7.96625
问	-7.9677
高	-7.97261
il	-7.97486
起	-7.97514
正	-7.97801
又	-7.97976
生活	-7.98122
学	-7.98162
f	-7.98597
?"	-7.99173
面	-7.99318
▁Thank	-7.99351
▁same	-7.99351
事	-7.99449
这样	-7.99811
ting	-8.00075
发	-8.00459
的是	-8.00872
ies	-8.00991
体	-8.01055
▁p	-8.01294
!	-8.01296
▁part	-8.01456
▁There	-8.01476
▁idea	-8.01688
ive	-8.01902
ers	-8.02379
--	-8.03022
新	-8.03216
它们	-8.03295
▁real	-8.0355
走	-8.03909
内	-8.04257
▁many	-8.0443
1	-8.04748
人类	-8.0475
▁f	-8.0503
▁give	-8.05079
▁let	-8.05134
只	-8.05364
be	-8.05381
斯	-8.05781
▁made	-8.05789
▁If	-8.05954
之	-8.05983
能够	-8.06563
改变	-8.0662
▁而且	-8.06767
▁和	-8.072
行	-8.07733
世界	-8.07844
▁human	-8.07994
▁through	-8.0802
长	-8.08576
水	-8.08763
都是	-8.09151
▁如果	-8.09604
at	-8.0985
▁20	-8.09909
▁这个	-8.10558
▁talk	-8.10679
ol	-8.10923
当	-8.10987
▁一个	-8.11216
头	-8.11857
研究	-8.11867
如何	-8.12025
▁better	-8.12656
▁may	-8.12735
自己的	-8.13247
外	-8.13376
还是	-8.13603
▁b	-8.14546
分	-8.14658
看到	-8.14717
▁end	-8.14895
以	-8.15128
▁use	-8.15347
▁today	-8.15432
▁G	-8.15454
▁doing	-8.15655
▁few	-8.15868
时间	-8.16075
able	-8.16404
:“	-8.16588
▁three	-8.16714
发现	-8.16721
▁any	-8.16933
ver	-8.1698
那个	-8.17265
▁un	-8.17449
光	-8.17642
场	-8.18228
中的	-8.18295
社会	-8.18369
▁him	-8.18394
▁thought	-8.18468
是一个	-8.19017
▁P	-8.19179
▁year	-8.19192
▁after	-8.19334
▁started	-8.19656
▁called	-8.19754
nt	-8.20289
ity	-8.20351
希望	-8.20607
讲	-8.20878
▁story	-8.20896
再	-8.2143
▁de	-8.21432
▁next	-8.21751
却	-8.21751
意	-8.22011
▁fact	-8.2229
岁	-8.22558
ate	-8.22589
▁why	-8.22621
▁M	-8.22783
2	-8.22875
动	-8.23338
成为	-8.23534
I	-8.23646
写	-8.24264
其他	-8.2429
▁big	-8.24349
这样的	-8.24859
▁great	-8.25153
打	-8.25223
▁E	-8.25322
▁help	-8.25805
A	-8.25903
——	-8.26177
lo	-8.26352
▁并且	-8.26373
?”	-8.26539
道	-8.2659
▁own	-8.27086
让	-8.27117
路	-8.2713
ne	-8.27181
20	-8.27385
ment	-8.274
理	-8.27733
名	-8.27828
▁last	-8.28003
▁或者	-8.28145
,"	-8.28202
▁ago	-8.28209
或	-8.28321
▁Well	-8.28516
特	-8.28872
放	-8.28897
车	-8.28905
▁live	-8.28919
li	-8.28987
3	-8.29253
回	-8.29556
▁together	-8.29864
▁should	-8.29865
▁C	-8.30203
正在	-8.30343
ad	-8.30403
▁因此	-8.30407
▁came	-8.30435
数	-8.30692
尔	-8.30774
真的	-8.30824
ce	-8.30929
跟	-8.31221
)	-8.3176
▁point	-8.3176
因为	-8.31766
不同	-8.31969
任何	-8.32138
▁call	-8.32363
入	-8.32419
▁并	-8.32493
7	-8.32543
ra	-8.32608
两	-8.32665
▁When	-8.32726
加	-8.32852
没	-8.32982
三	-8.33164
只是	-8.33176
ted	-8.33346
主	-8.33574
▁就是	-8.33607
▁family	-8.33692
▁T	-8.33699
▁question	-8.33718
政府	-8.34672
▁example	-8.34672
S	-8.35325
带	-8.35447
法	-8.35474
合	-8.35614
▁find	-8.35664
▁d	-8.35802
▁如果你	-8.35856
大家	-8.35977
相	-8.36387
开	-8.36471
id	-8.36526
想要	-8.36594
▁might	-8.36667
ther	-8.37152
两个	-8.37178
应该	-8.37486
使	-8.37512
技术	-8.37669
as	-8.37943
▁就	-8.38122
几	-8.38176
进	-8.38321
▁F	-8.38471
处	-8.38471
通过	-8.38527
叫	-8.38624
6	-8.38661
奇	-8.38667
自	-8.38674
▁information	-8.38695
▁mean	-8.38717
进行	-8.38886
受	-8.38914
电影	-8.39095
了一个	-8.39391
▁school	-8.39724
▁turn	-8.39724
完全	-8.39729
▁before	-8.3973
ch	-8.39758
out	-8.40133
得到	-8.40211
不会	-8.40463
意识	-8.40593
重	-8.40595
决定	-8.40767
相信	-8.4078
▁我想	-8.409
他的	-8.40969
一下	-8.41283
来说	-8.41474
帮助	-8.41696
游戏	-8.4179
▁percent	-8.41821
▁technology	-8.4183
使用	-8.41912
▁went	-8.42446
量	-8.42687
▁来	-8.427
由	-8.42856
▁Because	-8.42882
▁ever	-8.42888
建筑	-8.42966
创造	-8.43095
见	-8.43135
▁man	-8.43524
▁experience	-8.4362
美国	-8.43739
理解	-8.4397
之后	-8.44025
▁problem	-8.44202
一次	-8.44283
▁有	-8.44332
▁st	-8.44707
这一	-8.44812
▁again	-8.44995
鱼	-8.45044
》	-8.45044
《	-8.45045
▁那	-8.45096
女性	-8.45133
今天	-8.45185
他们的	-8.45229
东西	-8.45353
十	-8.45699
▁play	-8.45928
ry	-8.4593
un	-8.45938
日	-8.46123
指	-8.46134
▁each	-8.46146
不同的	-8.46462
难	-8.47044
te	-8.47169
▁still	-8.47254
线	-8.47256
▁当	-8.47586
机	-8.48189
爱	-8.48354
x	-8.48355
▁between	-8.48378
▁well	-8.48404
el	-8.48462
▁trying	-8.48657
▁person	-8.4869
认为	-8.48815
存在	-8.48931
次	-8.49051
同	-8.4923
▁means	-8.49356
死	-8.49413
拉	-8.49508
▁al	-8.49817
也是	-8.49917
为什么	-8.49962
方式	-8.50071
▁building	-8.50115
5	-8.50135
▁feel	-8.50253
的问题	-8.50338
一起	-8.50423
z	-8.50677
之前	-8.50729
身	-8.50764
4	-8.50844
四	-8.50976
明	-8.51185
关于	-8.51294
成功	-8.51834
本	-8.51838
▁fish	-8.51845
▁My	-8.52053
觉得	-8.52195
位	-8.52356
ous	-8.52391
▁love	-8.52756
L	-8.5284
门	-8.52987
设计	-8.52995
▁self	-8.53003
科技	-8.53004
▁sort	-8.53013
▁change	-8.53159
新的	-8.53185
▁able	-8.5345
才	-8.53722
国家	-8.54224
▁another	-8.54295
▁used	-8.5499
不能	-8.55178
现实	-8.55375
▁always	-8.55398
城市	-8.55401
sh	-8.55626
儿	-8.55698
is	-8.56076
太	-8.56171
op	-8.56323
▁believe	-8.56324
▁am	-8.56542
等	-8.56566
8	-8.56585
视	-8.56599
花	-8.56606
▁billion	-8.56618
▁important	-8.56618
▁city	-8.56649
▁wanted	-8.56978
▁place	-8.57231
▁这就是	-8.57261
▁对	-8.5741
别	-8.57511
感觉	-8.57514
▁g	-8.57728
教	-8.57838
▁future	-8.57852
生命	-8.57876
重要	-8.5789
无法	-8.57906
拥有	-8.57911
科学	-8.57926
的事情	-8.57928
万	-8.57951
co	-8.58032
并	-8.58311
的东西	-8.58752
间	-8.58783
▁create	-8.58815
▁long	-8.58974
海	-8.59097
远	-8.59098
▁government	-8.59102
▁million	-8.59102
▁con	-8.59111
ten	-8.59165
▁c	-8.592
▁off	-8.59974
电	-8.60245
▁home	-8.60377
其	-8.60522
一直	-8.60638
每	-8.60905
故事	-8.60912
▁She	-8.61065
我想	-8.61258
物	-8.61323
变	-8.61472
▁small	-8.6165
▁谢谢	-8.61753
此	-8.62029
全	-8.62202
一位	-8.62401
ck	-8.62672
极	-8.62939
公司	-8.63212
▁bit	-8.6323
但	-8.63241
▁ask	-8.63831
▁remember	-8.63853
总	-8.63899
未来	-8.6396
并不	-8.64247
气	-8.64263
谁	-8.64265
▁found	-8.64265
▁took	-8.6431
孩子	-8.64318
▁它们	-8.64318
信息	-8.64318
▁water	-8.6489
就会	-8.65211
us	-8.65506
活	-8.65518
ut	-8.65518
则	-8.65588
单	-8.65592
环境	-8.65599
是个	-8.65921
▁whole	-8.65936
▁light	-8.66054
让我们	-8.66167
▁从	-8.66197
女	-8.66234
▁game	-8.66378
事情	-8.66441
作	-8.66604
有些	-8.66681
定	-8.66721
D	-8.66749
图	-8.66768
或者	-8.66794
交	-8.66922
快	-8.66927
▁everything	-8.6695
快乐	-8.6718
▁talking	-8.67665
ice	-8.67772
ge	-8.67811
de	-8.679
ant	-8.68042
甚至	-8.68129
10	-8.68156
▁你们	-8.682
如	-8.68205
流	-8.68269
▁trust	-8.68319
▁young	-8.68854
um	-8.6888
年前	-8.68997
ig	-8.69176
▁understand	-8.69293
听	-8.69311
月	-8.69435
国	-8.69457
most	-8.69627
深	-8.69641
的话	-8.69646
吧	-8.69705
系统	-8.69707
▁sense	-8.69708
产生	-8.69731
less	-8.69854
带来	-8.69868
如此	-8.69884
▁second	-8.70111
age	-8.70132
到了	-8.70392
▁hard	-8.70432
转	-8.70499
,000	-8.70736
▁10	-8.7092
上的	-8.71027
▁done	-8.71034
解决	-8.71114
▁job	-8.71117
▁hope	-8.71134
ha	-8.71295
非	-8.71347
▁away	-8.71568
ary	-8.71749
▁old	-8.71756
出来	-8.71807
人的	-8.71889
▁system	-8.72031
▁thinking	-8.72042
▁pro	-8.72276
德	-8.72528
强	-8.72542
%	-8.72545
B	-8.72559
▁happened	-8.72764
的故事	-8.72878
员	-8.72973
ist	-8.73193
▁那么	-8.73197
口	-8.73396
朋友	-8.73489
▁become	-8.73505
美	-8.73544
边	-8.73967
吃	-8.73995
发展	-8.74004
▁times	-8.74157
只有	-8.74297
起来	-8.74739
ie	-8.74786
▁looking	-8.75206
利	-8.75209
公	-8.75402
玩	-8.7543
克	-8.75454
便	-8.75464
拿	-8.75465
推	-8.75465
▁design	-8.75465
▁consciousness	-8.75468
▁O	-8.75469
能源	-8.75512
▁For	-8.75589
方面	-8.75602
对于	-8.76057
一点	-8.76072
喜欢	-8.76101
真	-8.76124
怎么	-8.76182
▁friends	-8.76207
▁我的	-8.76406
色	-8.76928
马	-8.76948
▁course	-8.76958
▁women	-8.76958
▁New	-8.76958
度	-8.76977
▁too	-8.76999
ng	-8.7709
它的	-8.77172
▁D	-8.77186
部分	-8.7732
▁30	-8.77359
有人	-8.77769
ac	-8.78075
如果	-8.78112
传	-8.783
▁No	-8.7836
通	-8.78377
接	-8.78395
近	-8.78397
▁science	-8.78473
文化	-8.785
各种	-8.78503
想象	-8.78509
▁someone	-8.78527
意识到	-8.78733
的生活	-8.78936
类	-8.79053
亿	-8.79661
基	-8.79971
▁energy	-8.80011
▁reason	-8.80011
▁interesting	-8.80011
▁case	-8.80014
▁brain	-8.80015
▁这种	-8.80304
50	-8.80355
让我	-8.80439
先	-8.80504
影响	-8.80719
最后	-8.80767
五	-8.80978
部	-8.81282
神	-8.81321
过去	-8.81393
早	-8.81573
60	-8.81574
▁name	-8.81576
▁nothing	-8.81577
▁four	-8.81584
自然	-8.81594
完成	-8.81641
▁One	-8.81728
making	-8.81736
的一个	-8.8182
▁asked	-8.82014
uch	-8.82113
照片	-8.82327
▁best	-8.82392
▁pa	-8.82662
ness	-8.82909
穿	-8.82988
▁high	-8.83029
看看	-8.83146
▁space	-8.83161
装	-8.83161
展示	-8.83162
目标	-8.83163
提供	-8.83163
▁N	-8.83222
整个	-8.83283
▁head	-8.83347
▁inside	-8.83391
有一个	-8.83442
▁还有	-8.83505
▁co	-8.8373
做的	-8.84066
▁kids	-8.84184
ma	-8.84207
将会	-8.84475
▁同时	-8.84652
论	-8.84671
字	-8.84716
老	-8.84765
努力	-8.84774
▁answer	-8.84774
▁room	-8.84774
▁anything	-8.84774
思考	-8.84775
那样	-8.84865
▁simple	-8.85139
▁car	-8.85417
的方式	-8.85624
反	-8.85999
▁try	-8.86035
感	-8.86202
信	-8.86314
器	-8.86385
▁under	-8.8641
钱	-8.86412
80	-8.86413
▁而是	-8.86438
▁lives	-8.86499
家庭	-8.86545
ap	-8.86648
▁R	-8.86965
▁told	-8.8701
old	-8.8746
这是	-8.87492
▁process	-8.87662
告诉	-8.88035
数据	-8.88055
密	-8.8808
▁children	-8.8808
▁以及	-8.88082
▁open	-8.88086
图片	-8.88096
处理	-8.88122
很好	-8.88615
找到	-8.88635
me	-8.88775
ance	-8.8884
还有	-8.88928
▁How	-8.8894
越	-8.89253
回到	-8.8926
是在	-8.89386
方	-8.89421
失	-8.89669
工	-8.89729
该	-8.8973
空间	-8.89791
最终	-8.89799
接受	-8.898
进化	-8.89833
▁V	-8.90273
住	-8.90406
▁games	-8.90495
必须	-8.90679
是什么	-8.91018
▁working	-8.91336
▁所以我	-8.91411
集	-8.91488
信任	-8.91493
▁saw	-8.91501
▁reality	-8.91566
变得	-8.91663
▁ma	-8.91736
▁sh	-8.91943
ally	-8.91966
▁pre	-8.92123
▁ra	-8.92165
R	-8.92292
那么	-8.925
no	-8.92515
ca	-8.92611
现	-8.92661
的时间	-8.92943
实	-8.92959
制	-8.93179
眼	-8.93253
请	-8.93253
▁money	-8.93253
掉	-8.93253
自我	-8.93293
医生	-8.93296
9	-8.93406
▁Here	-8.93928
ay	-8.93989
令人	-8.94132
ine	-8.94291
身体	-8.94391
ph	-8.94493
na	-8.94644
应	-8.94695
,“	-8.94777
lu	-8.94863
然	-8.94896
观	-8.94916
常	-8.94932
第一	-8.94974
短	-8.95039
▁community	-8.95039
▁environment	-8.95039
曾经	-8.95044
▁somebody	-8.95058
▁later	-8.95092
▁five	-8.95128
获得	-8.95139
感到	-8.95173
▁ex	-8.95439
片	-8.95856
样	-8.96134
C	-8.96223
M	-8.96251
发生	-8.96425
ta	-8.96436
▁vi	-8.96811
关系	-8.96855
▁project	-8.96857
▁view	-8.96857
▁share	-8.9687
▁both	-8.96925
在这里	-8.97413
to	-8.97549
来自	-8.97633
j	-8.97638
▁using	-8.97701
tion	-8.97895
是我	-8.98004
期	-8.9805
了解	-8.98095
▁power	-8.98133
直	-8.98289
▁walk	-8.98296
▁build	-8.98302
▁movie	-8.98626
提	-8.98649
杀	-8.98686
安	-8.98687
视频	-8.98709
▁pretty	-8.98709
▁large	-8.98709
▁matter	-8.98709
继续	-8.98709
▁coming	-8.98721
▁less	-8.98805
▁imagine	-8.98953
▁(	-8.98962
话	-8.99093
别人	-8.99094
进入	-8.99149
▁也	-8.99224
▁dis	-8.99234
”。	-8.99362
方法	-8.99593
的工作	-8.99621
情况	-8.99666
▁当我	-8.9991
30	-9.00055
乐	-9.00236
这里	-9.00306
he	-9.00318
▁hand	-9.00497
随	-9.00505
取	-9.00522
▁去	-9.00539
声	-9.0058
微	-9.00582
ian	-9.00588
尽	-9.00595
买	-9.00596
▁father	-9.00596
▁food	-9.00596
▁knew	-9.00596
▁mother	-9.00596
▁myself	-9.00596
布	-9.00596
▁complete	-9.00596
▁phone	-9.00597
解释	-9.00598
电脑	-9.0061
one	-9.00698
让你	-9.00738
▁我在	-9.00741
ot	-9.00916
▁19	-9.00961
好的	-9.01044
▁Mo	-9.01344
经历	-9.01636
▁人们	-9.01651
▁words	-9.01779
▁K	-9.01786
ci	-9.01954
uring	-9.01978
▁U	-9.02009
结	-9.02016
▁close	-9.02067
并且	-9.02113
▁mind	-9.02143
病	-9.02219
ake	-9.02302
型	-9.02404
男人	-9.02408
知	-9.02457
清	-9.02491
书	-9.02492
▁girl	-9.02516
读	-9.02518
▁living	-9.02519
▁machine	-9.02519
细胞	-9.02519
▁six	-9.02519
▁memory	-9.02519
▁enough	-9.02519
建立	-9.02525
▁事实上	-9.02543
里面	-9.02584
情	-9.02701
▁set	-9.02703
man	-9.02842
的事	-9.03388
怎样	-9.03426
所有的	-9.03494
我要	-9.03508
词	-9.04005
▁problems	-9.04033
▁hav	-9.04097
▁images	-9.0415
The	-9.04168
▁says	-9.04324
文	-9.04412
空	-9.04438
西	-9.04456
照	-9.04459
挑战	-9.04472
层	-9.0448
有趣的	-9.0448
▁digital	-9.0448
▁left	-9.0448
▁physical	-9.0448
火	-9.0448
500	-9.0448
考虑	-9.0448
品牌	-9.04481
▁moment	-9.04507
▁La	-9.04557
fi	-9.04746
如果你	-9.04966
在一起	-9.04976
不要	-9.04993
ever	-9.05028
生物	-9.05169
▁这里	-9.05295
找	-9.05467
ight	-9.05947
的想法	-9.06125
少	-9.06204
(	-9.06207
觉	-9.06404
帮	-9.06469
▁possible	-9.0648
▁video	-9.0648
▁since	-9.0648
号	-9.0648
▁data	-9.0648
许多	-9.06494
▁H	-9.06535
▁bad	-9.06547
重新	-9.0659
错误	-9.06715
ia	-9.06745
几个	-9.06788
▁heard	-9.06795
我们可以	-9.06839
那里	-9.06866
▁Why	-9.07009
ag	-9.0725
的世界	-9.07358
我在	-9.07423
已	-9.07502
up	-9.07758
是因为	-9.0782
▁把	-9.07846
某	-9.07906
想到	-9.08165
▁用	-9.08196
ful	-9.08301
▁its	-9.08464
医	-9.08468
更多	-9.08505
林	-9.08517
救	-9.08521
▁computer	-9.08521
▁entire	-9.08521
▁keep	-9.08521
▁team	-9.08521
二	-9.08521
讨论	-9.08521
服务	-9.08522
父亲	-9.08523
▁country	-9.08529
教育	-9.08531
演讲	-9.08542
参与	-9.08548
▁against	-9.08614
当我	-9.08638
▁choice	-9.08654
▁但我	-9.08693
做出	-9.09155
认	-9.09761
▁sp	-9.10007
时候	-9.10164
ell	-9.10421
各	-9.10484
E	-9.10508
怪	-9.10604
▁sometimes	-9.10605
▁single	-9.10606
社区	-9.10607
▁cell	-9.10631
学校	-9.10639
▁不过	-9.1066
▁move	-9.10668
事实	-9.10706
▁online	-9.10745
就能	-9.10958
每个	-9.1117
bo	-9.11244
▁为什么	-9.11382
ish	-9.11583
收	-9.1165
▁每	-9.11808
数字	-9.12098
▁looked	-9.12186
解	-9.12245
▁grow	-9.12331
的地方	-9.12397
▁seen	-9.12524
这么	-9.12574
▁side	-9.12634
容易	-9.12644
式	-9.12693
离	-9.12706
作为	-9.12708
联系	-9.12716
风	-9.12718
维	-9.1272
选	-9.12721
▁quit	-9.12732
尼	-9.12732
啊	-9.12732
▁culture	-9.12732
▁half	-9.12732
意义	-9.12745
真实	-9.12751
各位	-9.12752
P	-9.12753
以及	-9.12754
活动	-9.12775
最近	-9.12815
▁planet	-9.12831
尝试	-9.12907
▁可以	-9.13061
之一	-9.1311
女孩	-9.13211
另一个	-9.13291
记忆	-9.13489
▁当然	-9.13563
条	-9.1382
她的	-9.14163
▁As	-9.1426
▁ch	-9.14314
出现	-9.14318
原因	-9.14468
▁如果我们	-9.14473
张	-9.14669
错	-9.14685
机会	-9.14707
形	-9.14746
约	-9.14796
▁comes	-9.14798
▁far	-9.14826
止	-9.14897
低	-9.14903
干	-9.14904
六	-9.14905
▁amazing	-9.14905
▁daughter	-9.14906
▁face	-9.14909
控制	-9.14909
▁woman	-9.14911
几乎	-9.14913
音乐	-9.14915
▁stuff	-9.14916
▁run	-9.15053
▁spend	-9.15102
运动	-9.15107
▁learned	-9.15227
▁W	-9.15309
总是	-9.15504
有个	-9.15567
son	-9.15647
▁Do	-9.16005
有了	-9.16226
▁men	-9.16342
ated	-9.16343
▁book	-9.16495
个人	-9.16602
mb	-9.16652
▁ho	-9.1666
同时	-9.16679
项目	-9.16867
造	-9.16913
球	-9.16954
我就	-9.17007
飞	-9.17074
背	-9.1708
台	-9.17115
调	-9.17116
倍	-9.17128
▁York	-9.17128
▁dream	-9.17128
▁individual	-9.17128
▁program	-9.17128
卡	-9.17128
▁until	-9.17128
▁sound	-9.17129
世纪	-9.1713
▁brand	-9.17131
学习	-9.17136
▁night	-9.17141
特别	-9.17174
▁past	-9.17211
100	-9.17272
叫做	-9.17279
ain	-9.17292
病人	-9.17467
的原因	-9.17583
真正	-9.17595
地方	-9.17616
那种	-9.17731
曾	-9.17866
▁我认为	-9.17983
民	-9.18048
她们	-9.18217
一张	-9.18227
▁让我们	-9.18271
▁door	-9.18435
ence	-9.18641
有着	-9.18679
▁po	-9.1876
ite	-9.18814
▁最后	-9.18856
ga	-9.18869
▁read	-9.18926
组	-9.19113
事物	-9.19125
简单	-9.1921
表	-9.1932
▁都	-9.1934
算	-9.19367
惊	-9.19375
格	-9.19385
▁watch	-9.19401
计划	-9.19403
▁sure	-9.19403
▁gave	-9.19405
▁Uni	-9.19411
▁step	-9.19417
第一次	-9.19441
超过	-9.19458
▁test	-9.19482
ions	-9.1949
一定	-9.1967
▁image	-9.19784
然后	-9.19797
▁没有	-9.2001
块	-9.20049
▁要	-9.20125
▁playing	-9.20255
一切	-9.20341
率	-9.20348
星	-9.20431
▁Ma	-9.20494
我是	-9.20739
为了	-9.20804
都有	-9.2083
▁within	-9.20872
▁TED	-9.21103
些	-9.21222
一天	-9.2127
原	-9.21535
代	-9.21546
看到的	-9.2158
ise	-9.21614
▁ways	-9.21691
网络	-9.21703
级	-9.21718
▁particular	-9.21726
聚	-9.21726
▁difficult	-9.21726
▁film	-9.21726
▁social	-9.21726
▁control	-9.21728
▁Let	-9.21868
▁farm	-9.21976
金	-9.22002
孩子们	-9.22065
几年	-9.22116
▁piece	-9.22137
听到	-9.2237
▁bring	-9.22561
我们能	-9.22974
▁act	-9.23009
▁在我	-9.23102
day	-9.2315
达	-9.23152
有点	-9.23436
▁实际上	-9.23496
历史	-9.23542
过程	-9.23626
▁happens	-9.23631
▁often	-9.23651
G	-9.23713
▁happen	-9.23803
下来	-9.23811
纳	-9.23857
▁你可以	-9.24021
一个人	-9.24044
除	-9.24082
至	-9.24095
战	-9.24097
树	-9.24107
▁group	-9.24107
威	-9.24107
▁stories	-9.24107
倒	-9.24107
▁model	-9.24112
▁while	-9.24113
分享	-9.24114
或许	-9.24114
▁boy	-9.24115
▁deep	-9.24135
自由	-9.24159
▁photograph	-9.24205
▁exist	-9.24206
小时	-9.24279
▁—	-9.24488
▁goes	-9.24607
并没有	-9.24668
每天	-9.24685
制造	-9.24839
▁也许	-9.24986
▁base	-9.25088
▁days	-9.25102
给我	-9.25164
▁week	-9.25199
▁offer	-9.25417
end	-9.25519
多少	-9.25692
▁这样	-9.25926
gen	-9.25989
ile	-9.26059
语言	-9.26106
▁不是	-9.26128
之间	-9.26207
▁To	-9.26361
脑	-9.26419
赛	-9.26496
艺术	-9.2651
▁effect	-9.26512
立	-9.26518
置	-9.26526
室	-9.26539
坏	-9.26539
核	-9.26545
养	-9.26546
跑	-9.26546
▁choose	-9.26546
▁company	-9.26546
▁crazy	-9.26546
健康	-9.26546
包括	-9.26546
▁North	-9.26546
▁color	-9.26546
确实	-9.26554
▁short	-9.26556
意思	-9.26556
食物	-9.26557
明白	-9.26564
ard	-9.26571
▁leave	-9.26582
动物	-9.26598
变化	-9.26609
▁sever	-9.2666
我们在	-9.26667
大脑	-9.26697
▁States	-9.26814
第一个	-9.26987
▁picture	-9.2708
▁guy	-9.27098
一条	-9.27115
▁changed	-9.27145
40	-9.27197
TED	-9.27204
▁months	-9.27204
不知道	-9.27253
▁line	-9.27338
▁就像	-9.2762
小的	-9.27656
也不	-9.27658
把它	-9.28081
▁learn	-9.28263
其中	-9.28282
ical	-9.28305
保	-9.28312
▁age	-9.28372
ling	-9.28465
有很多	-9.28644
关	-9.2868
科	-9.28815
程	-9.28922
▁对于	-9.28959
称	-9.28967
ick	-9.28977
谈	-9.28981
市	-9.28994
命	-9.28996
tra	-9.29006
假	-9.2903
概念	-9.29038
电话	-9.29044
拍	-9.29046
船	-9.29046
送	-9.29046
▁instead	-9.29046
▁study	-9.29046
▁thousand	-9.29046
90	-9.29046
cross	-9.29046
▁Earth	-9.29046
▁history	-9.29046
经济	-9.29046
结束	-9.29049
▁house	-9.29051
全球	-9.29067
▁everyone	-9.29106
看起来	-9.29143
▁那些	-9.29208
▁Some	-9.29223
群	-9.29278
▁我们在	-9.29528
▁于是	-9.29627
log	-9.29645
▁Al	-9.29801
T	-9.29871
面对	-9.3
男	-9.30028
百	-9.30041
for	-9.30188
▁其实	-9.30277
▁All	-9.30375
▁Co	-9.3099
坐	-9.31047
做到	-9.31189
的孩子	-9.31194
▁hear	-9.31468
记	-9.31479
▁gra	-9.31516
业	-9.31534
往	-9.31549
众	-9.31569
影	-9.31576
复	-9.31576
▁seem	-9.3159
士	-9.31592
连	-9.31594
古	-9.31595
永远	-9.31595
亚	-9.3161
米	-9.3161
▁difference	-9.3161
▁language	-9.3161
▁ourselves	-9.3161
▁relationship	-9.3161
▁road	-9.3161
▁death	-9.3161
▁along	-9.31611
▁pass	-9.31617
类似	-9.31618
▁pick	-9.31649
很多人	-9.31903
▁happiness	-9.3191
言	-9.32028
比较	-9.3207
周	-9.32144
结构	-9.32214
当时	-9.3239
的小	-9.32443
▁bu	-9.32581
came	-9.32589
▁以	-9.32697
▁care	-9.32726
十年	-9.33099
▁tak	-9.33102
▁body	-9.33209
受到	-9.33435
实际上	-9.33492
▁40	-9.33543
质	-9.33584
服	-9.33698
11	-9.33843
并不是	-9.33957
▁让我	-9.3398
per	-9.34017
▁success	-9.34109
Y	-9.34167
演	-9.34178
权	-9.34183
品	-9.34194
管	-9.34205
商	-9.34226
致	-9.34237
▁concept	-9.3424
恶	-9.34242
▁true	-9.34242
夫	-9.34242
▁yet	-9.34242
记录	-9.34246
大概	-9.34255
实现	-9.34257
安全	-9.34268
梦想	-9.3427
▁alone	-9.34277
发明	-9.34319
平	-9.34434
ier	-9.34508
女人	-9.34598
ial	-9.34651
▁natural	-9.34665
▁At	-9.34706
▁通过	-9.34814
▁met	-9.34948
▁我们可以	-9.35192
▁让	-9.35264
io	-9.35268
才能	-9.35306
时代	-9.35345
▁top	-9.35464
就像	-9.35502
的情况	-9.35561
的照片	-9.35587
tic	-9.35838
ub	-9.35872
份	-9.35925
▁比如	-9.36115
具	-9.36402
女儿	-9.36606
▁America	-9.36661
机器	-9.36687
▁为了	-9.36766
排	-9.36846
师	-9.3688
画	-9.36882
族	-9.36903
持	-9.36923
罗	-9.36928
助	-9.3693
预	-9.36934
板	-9.36944
▁already	-9.36944
▁probably	-9.36944
▁research	-9.36944
大多数	-9.36944
▁clean	-9.36945
哈	-9.36945
答案	-9.36947
政治	-9.36947
▁music	-9.36948
工具	-9.36958
ook	-9.36968
制作	-9.36971
▁camera	-9.37018
千	-9.37704
▁number	-9.37745
▁plant	-9.37869
不到	-9.38049
▁allow	-9.38129
▁changes	-9.38679
▁ideas	-9.3894
ize	-9.39174
在这个	-9.39201
▁whe	-9.39236
三个	-9.39468
我们需要	-9.39519
▁但是我	-9.39532
▁choices	-9.3954
愿意	-9.39553
半	-9.3956
基本	-9.39588
即	-9.39633
热	-9.39663
刚	-9.39685
白	-9.39697
语	-9.39702
停	-9.39711
亲	-9.39711
]	-9.39722
▁fundamental	-9.39722
▁risk	-9.39723
▁terms	-9.39723
领域	-9.39723
任务	-9.39724
ship	-9.39725
严重	-9.39729
母亲	-9.39729
▁must	-9.3975
本身	-9.39771
▁outside	-9.39796
使得	-9.39894
想法	-9.39922
主要	-9.39988
大量	-9.40006
中国	-9.40027
▁On	-9.40039
▁lots	-9.40045
▁这是一个	-9.40057
分钟	-9.4006
在过去	-9.40065
在一个	-9.40111
更加	-9.40132
更多的	-9.40155
建	-9.40309
ating	-9.4032
▁当我们	-9.40354
▁level	-9.40546
cu	-9.40554
▁challenge	-9.40609
▁将	-9.40678
▁w	-9.4077
变成	-9.40783
很大	-9.40971
▁hundreds	-9.40979
和我	-9.41185
生活在	-9.41199
land	-9.4126
这个问题	-9.41547
区	-9.41596
规	-9.41866
▁cl	-9.41993
大学	-9.42071
同样的	-9.42085
居	-9.42088
步	-9.42089
▁Re	-9.42225
世	-9.4232
源	-9.42325
议	-9.42417
英	-9.42456
哪	-9.42472
智	-9.42482
▁questions	-9.42517
测	-9.42541
共	-9.42542
负	-9.42543
落	-9.42547
任	-9.42557
了我	-9.42564
奥	-9.42579
▁conversation	-9.42579
▁couple	-9.42579
▁easy	-9.42579
▁explain	-9.42579
迷	-9.42579
▁follow	-9.42579
▁present	-9.42579
死亡	-9.42584
▁else	-9.42586
▁drive	-9.42588
建造	-9.4259
▁free	-9.42623
▁finally	-9.4263
▁state	-9.42659
手机	-9.42673
但是	-9.42676
寻找	-9.42731
以后	-9.42748
作用	-9.42773
▁那就是	-9.42797
ack	-9.42812
da	-9.42817
led	-9.42921
▁rest	-9.42927
▁甚至	-9.4298
能力	-9.43019
学生	-9.43058
▁win	-9.43402
▁mis	-9.43406
▁会	-9.43429
▁seeing	-9.43476
体验	-9.43727
到底	-9.43735
com	-9.43767
▁hold	-9.43828
不断	-9.43836
ily	-9.44199
性的	-9.44222
出了	-9.44358
发生在	-9.44388
and	-9.44446
ern	-9.44523
▁De	-9.44544
会被	-9.44889
年的	-9.45047
般	-9.4536
产	-9.45413
根	-9.45494
举	-9.45507
笑	-9.45508
肯定	-9.4552
▁countries	-9.4552
▁dollars	-9.4552
▁figure	-9.4552
▁public	-9.4552
▁result	-9.4552
▁society	-9.4552
▁species	-9.4552
▁type	-9.4552
▁violence	-9.4552
河	-9.4552
关键	-9.45521
疾病	-9.45521
Emma	-9.45522
组织	-9.45522
cient	-9.45523
▁write	-9.45526
困难	-9.45532
移动	-9.45538
▁fire	-9.45557
先生	-9.45615
大约	-9.45667
▁realized	-9.45727
不仅仅是	-9.45816
▁health	-9.45963
身上	-9.46162
▁created	-9.46207
ory	-9.46224
▁结果	-9.46357
▁kid	-9.46625
▁hands	-9.46734
我们就	-9.46862
bra	-9.46977
就在	-9.47067
rac	-9.47074
▁Be	-9.47203
▁即使	-9.47223
ak	-9.47322
是我们	-9.47453
time	-9.47506
▁那是	-9.47597
么	-9.47601
▁takes	-9.47757
ward	-9.47829
世界上	-9.47849
row	-9.47934
▁当时	-9.48004
▁war	-9.48048
改变了	-9.48267
久	-9.48271
精	-9.48482
引	-9.48486
▁object	-9.48517
州	-9.48526
音	-9.48526
药	-9.48532
首	-9.48535
界	-9.48537
山	-9.48544
拍摄	-9.48551
味	-9.48551
▁behind	-9.48551
▁local	-9.48551
▁themselves	-9.48551
▁itself	-9.48551
换	-9.48551
退	-9.48551
若	-9.48551
▁felt	-9.48551
▁born	-9.48552
基因	-9.48553
因素	-9.48554
▁perhaps	-9.48555
▁order	-9.48558
增加	-9.4856
▁everybody	-9.48569
离开	-9.48584
▁sex	-9.48617
▁decided	-9.48626
科学家	-9.48647
男性	-9.48678
利用	-9.49051
我们所	-9.49063
同样	-9.49114
是关于	-9.4925
ture	-9.49361
▁eat	-9.4938
way	-9.49609
的能力	-9.4969
▁word	-9.49735
▁plan	-9.49774
bu	-9.49939
▁though	-9.49996
25	-9.50198
目的	-9.50255
▁sea	-9.50398
▁2	-9.50419
当然	-9.50551
也许	-9.50597
▁5	-9.50743
也会	-9.50771
一年	-9.50858
▁50	-9.50976
▁worked	-9.51108
其实	-9.51237
light	-9.51249
运	-9.51267
▁evolution	-9.51288
▁我说	-9.51314
象	-9.51352
地球	-9.51359
整	-9.51383
这些人	-9.51428
▁certain	-9.51506
晚	-9.51517
另外	-9.51536
超	-9.51571
cent	-9.51601
满	-9.51637
护	-9.51652
妙	-9.51669
木	-9.51671
▁child	-9.51675
警	-9.51675
剧	-9.51676
染色体	-9.51676
▁beautiful	-9.51676
▁companies	-9.51676
▁generation	-9.51676
▁moving	-9.51676
▁normal	-9.51676
▁worse	-9.51676
糟糕	-9.51676
编	-9.51676
透	-9.51676
害怕	-9.51677
燃料	-9.51677
▁business	-9.51679
职业	-9.51681
回答	-9.51685
适应	-9.51687
▁shape	-9.51692
最重要的	-9.51697
直接	-9.51702
▁store	-9.51712
自杀	-9.51715
等等	-9.51727
▁15	-9.51734
▁manage	-9.51772
▁cost	-9.5179
的人们	-9.51793
不想	-9.51805
形成	-9.51873
▁buy	-9.51886
▁God	-9.51929
行为	-9.52006
▁students	-9.5228
▁once	-9.52424
变成了	-9.52462
当地	-9.52517
▁inter	-9.52523
在那里	-9.53091
▁per	-9.53212
给了	-9.53264
▁photos	-9.53353
上了	-9.53631
istic	-9.53724
而且	-9.53889
Well	-9.53902
巨大的	-9.53922
百万	-9.53926
我们都	-9.53968
▁teach	-9.54042
都会	-9.54069
▁guys	-9.54181
▁lead	-9.5419
▁wear	-9.5423
年代	-9.54261
▁你会	-9.54407
十分	-9.54481
▁wonder	-9.54532
▁form	-9.54587
每一个	-9.54767
的信息	-9.54774
座	-9.54847
统	-9.54857
及	-9.54861
争	-9.54863
治	-9.54889
击	-9.54895
苦	-9.54896
实验	-9.54897
境	-9.54899
卫	-9.549
七	-9.54901
巴	-9.54901
症	-9.54902
▁front	-9.54902
▁happy	-9.54902
▁increase	-9.54902
▁parents	-9.54902
▁truth	-9.54902
课	-9.54902
观察	-9.54902
▁chemical	-9.54902
▁cause	-9.54903
▁South	-9.54903
▁magic	-9.54903
▁solve	-9.54904
▁treat	-9.54906
导致	-9.54907
精神	-9.54918
花费	-9.54918
观众	-9.54918
▁feed	-9.5492
合作	-9.54959
▁stop	-9.54961
失去	-9.55083
▁Or	-9.55244
line	-9.55249
▁pay	-9.55314
效	-9.55402
太阳	-9.55437
sa	-9.55469
物质	-9.55684
地区	-9.55961
▁我希望	-9.55986
唯一	-9.55993
ue	-9.56138
gu	-9.56339
当你	-9.56474
▁hours	-9.56501
▁places	-9.56748
有关	-9.56913
更好	-9.56915
另一	-9.57013
▁虽然	-9.57231
round	-9.57248
year	-9.57308
是如何	-9.57388
▁而我	-9.57492
▁weeks	-9.57558
真正的	-9.57612
的确	-9.57675
ative	-9.57958
果	-9.57983
▁X	-9.57993
意味着	-9.57996
▁spen	-9.58134
你可以	-9.5814
ld	-9.58184
solution	-9.58188
激	-9.58195
报	-9.582
差	-9.58209
标	-9.58212
料	-9.58218
南	-9.58219
细	-9.58227
领	-9.58227
二氧化碳	-9.58229
局	-9.58229
▁begin	-9.58235
▁communities	-9.58235
▁decade	-9.58235
▁freedom	-9.58235
▁identity	-9.58235
▁material	-9.58235
▁morning	-9.58235
▁perfect	-9.58235
▁wrong	-9.58235
▁cities	-9.58235
▁measure	-9.58235
危险	-9.58235
波	-9.58235
野	-9.58235
斯普尔洛克	-9.58235
▁tried	-9.58235
▁尽管	-9.58235
鼓掌	-9.58236
▁average	-9.58236
持续	-9.58237
▁brought	-9.58237
周围	-9.5824
▁save	-9.58241
普通	-9.58242
支持	-9.58242
▁wall	-9.58247
▁Lo	-9.58249
代表	-9.5825
试图	-9.58251
担心	-9.58257
▁simply	-9.58267
▁code	-9.58281
而言	-9.5829
▁doctor	-9.58297
相机	-9.58306
智能	-9.58348
图像	-9.58351
结果	-9.58415
▁art	-9.58442
大部分	-9.58477
▁sun	-9.58511
▁再	-9.58538
▁他说	-9.58559
▁hit	-9.58619
ust	-9.58625
▁...	-9.58653
▁gre	-9.58802
遇到	-9.58808
we	-9.58988
▁[	-9.59084
▁今天	-9.59174
最大的	-9.59552
当我们	-9.59559
▁我觉得	-9.59676
这就是	-9.59716
年轻	-9.5974
▁cr	-9.59792
告诉我	-9.60032
的方法	-9.60093
我可以	-9.60117
ep	-9.60155
bsolutely	-9.60326
让他们	-9.60506
fe	-9.60696
▁还	-9.61072
engineer	-9.61085
24	-9.61139
▁kill	-9.61311
记得	-9.6148
节	-9.61585
足	-9.61643
独	-9.61647
母	-9.61656
案	-9.6166
紧	-9.61666
修	-9.61674
冰	-9.61676
史	-9.61677
缺	-9.61679
棒	-9.61683
DNA	-9.61683
▁disease	-9.61683
▁opportunity	-9.61683
▁voice	-9.61683
▁intelligence	-9.61683
突然	-9.61684
▁sister	-9.61685
似乎	-9.61685
媒体	-9.61689
角度	-9.61698
通常	-9.61713
▁chromosome	-9.61722
▁Who	-9.61725
交流	-9.61728
艺术家	-9.61734
不仅	-9.61764
▁sub	-9.6179
创新	-9.61805
▁page	-9.61818
化学	-9.61865
iti	-9.61903
造成	-9.61977
这么做	-9.62018
回来	-9.62113
让人	-9.62129
长大	-9.62183
▁deal	-9.62208
出生	-9.62245
▁li	-9.62322
是一种	-9.6251
不再	-9.62582
土	-9.62583
▁die	-9.6285
Siftables	-9.63045
▁produce	-9.63068
简单的	-9.63127
站在	-9.63178
▁American	-9.63253
▁Ha	-9.63275
你是	-9.63324
留	-9.63379
▁land	-9.63484
年轻人	-9.6371
说明	-9.63756
没有任何	-9.63838
这是个	-9.63879
all	-9.64001
这件事	-9.64189
tro	-9.642
▁但我们	-9.64246
有可能	-9.64544
▁我们需要	-9.64766
▁speak	-9.64834
完	-9.65065
富	-9.65068
▁total	-9.65072
例	-9.6511
刻	-9.6512
试	-9.65133
绝	-9.6514
据	-9.65216
适	-9.65239
伤	-9.65251
顶	-9.65251
墙	-9.65254
亮	-9.65254
懂	-9.65254
混	-9.65254
遗	-9.65254
▁block	-9.65255
▁emotion	-9.65255
▁experiment	-9.65255
▁female	-9.65255
▁trick	-9.65255
▁value	-9.65255
伯	-9.65255
夜	-9.65255
益	-9.65255
迫	-9.65255
伦	-9.65255
卖	-9.65255
百分之	-9.65255
▁nature	-9.65255
设备	-9.65256
▁然而	-9.65259
资料	-9.65261
仍然	-9.65264
▁接着	-9.65264
办法	-9.65264
▁tree	-9.65265
讲述	-9.65265
经常	-9.65267
▁CO	-9.65273
谈论	-9.65275
的一部分	-9.6528
生产	-9.65315
物理	-9.65328
16	-9.6537
上升	-9.65372
▁而不是	-9.65402
▁Ca	-9.65415
应用	-9.65439
一般	-9.6545
▁fund	-9.65472
处于	-9.65507
▁ready	-9.6552
▁won	-9.65524
带着	-9.65583
那时	-9.65605
显示	-9.65618
▁longer	-9.6563
▁我当时	-9.65655
犯	-9.65661
一名	-9.6579
一步	-9.6582
我不知道	-9.65874
做了	-9.65927
有效	-9.6598
▁Go	-9.66002
看着	-9.66014
告诉你	-9.6607
这样做	-9.66121
我说	-9.66155
ists	-9.66227
12	-9.66307
我觉得	-9.66327
▁di	-9.66351
更好的	-9.66453
的朋友	-9.66526
▁feeling	-9.6656
▁photo	-9.66845
第	-9.66848
会有	-9.67052
那天	-9.67058
▁stand	-9.67167
ach	-9.67227
CA	-9.67282
▁Not	-9.67364
给你	-9.67476
▁hat	-9.6756
▁作为	-9.67601
可能会	-9.67814
问我	-9.6808
▁saying	-9.68351
▁18	-9.68356
▁collect	-9.68737
19	-9.68753
因	-9.6877
诗	-9.68771
件事	-9.68842
何	-9.68854
注	-9.68891
阿	-9.68911
专	-9.68913
角	-9.68918
景	-9.68921
石	-9.68924
配	-9.68927
中心	-9.68942
毒	-9.68946
纽约	-9.68951
易	-9.68953
善	-9.68953
守	-9.68953
优	-9.68957
防	-9.68958
▁China	-9.68958
▁achieve	-9.68958
▁strong	-9.68958
▁victim	-9.68958
奴	-9.68958
慢	-9.68958
贝	-9.68958
酒	-9.68958
▁architecture	-9.68959
▁trans	-9.68959
▁media	-9.68959
▁beginning	-9.6896
▁break	-9.6896
攻击	-9.6896
程序	-9.6896
▁favorite	-9.68961
创作	-9.68963
痛苦	-9.68965
测试	-9.68967
▁直到	-9.68969
参加	-9.68979
▁powerful	-9.68982
▁least	-9.68983
内容	-9.68987
▁fear	-9.69028
要求	-9.69036
全世界	-9.69042
▁mine	-9.69046
加入	-9.69055
load	-9.69064
▁faster	-9.69069
性别	-9.69096
最好的	-9.69252
▁pain	-9.69253
▁forward	-9.6928
▁cha	-9.69379
神经	-9.6948
地球上	-9.69512
unch	-9.69525
个月	-9.69611
具有	-9.69643
▁imp	-9.6967
▁sat	-9.69733
ni	-9.69857
▁leader	-9.69937
我认为	-9.70009
▁Con	-9.70057
▁reach	-9.70132
▁remembering	-9.70141
▁experienc	-9.70145
达到	-9.70255
复杂的	-9.70398
发生的	-9.70657
ff	-9.70706
每个人都	-9.70804
▁character	-9.70847
Oh	-9.7085
▁friend	-9.70867
断	-9.70967
就可以	-9.7108
▁taken	-9.71117
▁pol	-9.71212
用来	-9.71322
ious	-9.71429
pen	-9.71442
来看	-9.7171
不可能	-9.7177
▁seems	-9.71877
谢谢	-9.7242
这个世界	-9.72438
靠	-9.72581
经	-9.72666
临	-9.72769
费	-9.72773
程度	-9.72776
异	-9.72783
育	-9.72785
联	-9.72791
游	-9.72795
店	-9.72795
急	-9.72797
残	-9.72799
que	-9.72802
▁expect	-9.72804
▁field	-9.72804
▁memories	-9.72804
幻	-9.72804
餐	-9.72804
▁perform	-9.72805
九	-9.72805
▁suffer	-9.72805
▁clear	-9.72805
平均	-9.72805
团队	-9.72809
如今	-9.72813
二十几岁的人	-9.72822
例如	-9.72823
投入	-9.72824
老师	-9.72826
▁development	-9.72829
▁Right	-9.72833
进步	-9.72836
mission	-9.72855
种族	-9.72861
时刻	-9.72919
太多	-9.73003
儿子	-9.7303
▁你能	-9.73117
▁discover	-9.73233
下面	-9.73233
只能	-9.73321
很难	-9.73401
ism	-9.73406
▁因为我们	-9.7346
其它	-9.73529
像是	-9.73545
▁Every	-9.7358
上面	-9.73703
就有	-9.73703
put	-9.73837
你会	-9.74108
生存	-9.74142
▁goal	-9.74242
看见	-9.743
ton	-9.74624
▁hour	-9.74935
的建筑	-9.75026
13	-9.7506
▁class	-9.75233
▁needed	-9.7531
每个人	-9.75341
给我们	-9.75684
▁关于	-9.75728
▁An	-9.75729
都不	-9.75942
▁represent	-9.76276
▁meet	-9.76415
认识	-9.76419
放在	-9.76447
你能	-9.76598
▁invent	-9.76616
▁ability	-9.76713
第二	-9.76731
初	-9.76742
资	-9.76753
天才	-9.76756
有一些	-9.76759
食	-9.7676
破	-9.76766
园	-9.76768
灯	-9.76775
计	-9.76786
队	-9.76789
东	-9.76793
减	-9.76793
抗	-9.76796
接下来	-9.76797
疯狂	-9.76797
喝	-9.76801
北	-9.76804
塞	-9.76804
介绍	-9.76804
缩	-9.76804
▁especially	-9.76804
▁secret	-9.76804
▁situation	-9.76804
▁yourself	-9.76804
一系列	-9.76804
秒	-9.76804
▁impact	-9.76805
▁key	-9.76805
军	-9.76805
▁middle	-9.76805
训练	-9.76805
顿	-9.76805
技巧	-9.76805
妈妈	-9.76805
阶段	-9.76806
▁attack	-9.76806
inner	-9.7681
知识	-9.76815
可怕	-9.76821
▁huge	-9.76822
至少	-9.76824
某些	-9.76825
▁sitting	-9.76828
一些人	-9.76831
女士	-9.76832
组合	-9.76847
▁fall	-9.7685
全部	-9.76852
听起来	-9.76852
▁stay	-9.76859
比赛	-9.76886
▁demo	-9.76892
排放	-9.76935
Alex	-9.76935
物种	-9.76937
哪里	-9.76938
▁super	-9.76994
▁Korean	-9.77031
给你们	-9.77044
做什么	-9.77248
以为	-9.77273
根本	-9.77277
▁这是我	-9.77305
确	-9.77399
▁card	-9.77563
件	-9.77573
▁hi	-9.77597
▁heart	-9.77625
gr	-9.77643
▁product	-9.77666
坐在	-9.77695
多么	-9.77765
一切都	-9.77774
▁hu	-9.77796
看来	-9.77899
下去	-9.78037
提到	-9.78046
每年	-9.78072
▁becomes	-9.78187
▁asking	-9.78248
价值	-9.78433
主义	-9.78594
▁red	-9.78656
有多	-9.78686
▁首先	-9.78774
的影响	-9.79058
正是	-9.79062
经验	-9.7919
bi	-9.7921
复杂	-9.79378
学家	-9.79601
▁area	-9.79774
也能	-9.79978
网	-9.80446
问题是	-9.8046
▁develop	-9.80526
ex	-9.80583
变得更	-9.80622
▁其中	-9.80631
速	-9.8068
终	-9.80836
fully	-9.80842
必	-9.80876
▁scar	-9.80881
所做的	-9.80895
证	-9.80922
容	-9.80928
压	-9.80931
官	-9.80931
支	-9.80932
消	-9.80935
愿	-9.80939
简	-9.8094
客	-9.80943
街	-9.80944
句	-9.80958
准	-9.8096
列	-9.8096
城	-9.80962
痛	-9.80964
怀	-9.80969
狂	-9.80969
沉	-9.8097
桥	-9.80971
毁	-9.80971
弄	-9.80971
票	-9.80971
▁afraid	-9.80971
▁amount	-9.80971
▁blood	-9.80971
▁bodies	-9.80971
▁bridge	-9.80971
▁special	-9.80971
▁target	-9.80971
▁creative	-9.80971
▁includ	-9.80971
友	-9.80971
▁fuel	-9.80971
▁push	-9.80971
▁worth	-9.80971
八	-9.80971
脱	-9.80971
镜	-9.80971
▁miles	-9.80972
吨	-9.80972
疫苗	-9.80972
▁box	-9.80973
吸引	-9.80976
坚持	-9.80978
标准	-9.80978
模式	-9.80979
模型	-9.8098
▁safe	-9.8098
▁basically	-9.80981
减少	-9.80984
收集	-9.80984
现象	-9.80989
记住	-9.80994
属于	-9.80997
▁chance	-9.81001
位置	-9.81006
正确	-9.81007
direct	-9.81008
▁listen	-9.81013
15	-9.81014
▁movement	-9.81024
发生了	-9.81031
无论	-9.81036
经验自我	-9.81036
mit	-9.81049
自身	-9.81057
的声音	-9.81073
▁male	-9.81117
▁skin	-9.81123
都在	-9.81167
▁cut	-9.81177
▁connection	-9.81186
内心	-9.81195
事实上	-9.81239
残疾人	-9.81301
▁coal	-9.81322
▁gone	-9.81348
功能	-9.81401
ide	-9.81424
对此	-9.81499
▁Man	-9.81742
有时候	-9.81788
成了	-9.81864
把我	-9.81954
mobile	-9.81961
▁minutes	-9.82032
我们必须	-9.82052
▁teacher	-9.82099
这条	-9.821
▁books	-9.82242
▁needs	-9.82267
▁scale	-9.82437
▁town	-9.82473
▁toward	-9.82561
▁helped	-9.82738
▁非常感谢	-9.82829
好像	-9.83057
家人	-9.83071
是怎么	-9.83145
义	-9.83321
对我	-9.83334
▁hundred	-9.83368
ball	-9.83399
▁也就是	-9.83437
art	-9.83547
▁Are	-9.83574
也不会	-9.83729
跳	-9.83872
▁buildings	-9.83968
▁我开始	-9.8427
▁它是	-9.84328
ki	-9.84357
ang	-9.84375
▁当你	-9.84641
得到了	-9.84642
这位	-9.85034
会说	-9.8506
黑	-9.85116
改	-9.85135
▁fast	-9.85191
K	-9.8522
参	-9.85234
▁ear	-9.85239
望	-9.85277
king	-9.85288
脚	-9.85319
牛	-9.85319
▁Okay	-9.85319
▁approach	-9.85319
▁audience	-9.85319
▁black	-9.85319
▁capital	-9.85319
▁extreme	-9.85319
▁judge	-9.85319
▁okay	-9.85319
▁writing	-9.85319
▁wrote	-9.85319
床	-9.85319
▁creating	-9.85319
▁dark	-9.85319
拼	-9.85319
▁interested	-9.85319
梅	-9.85319
游戏玩家	-9.85319
艾	-9.85319
归	-9.85319
描述	-9.8532
▁potential	-9.8532
细菌	-9.8532
▁imagination	-9.8532
▁speed	-9.85321
探索	-9.85321
试验	-9.85323
▁girls	-9.85326
结婚	-9.85328
保证	-9.85329
关注	-9.8533
cul	-9.8533
非洲	-9.85331
消失	-9.85333
角色	-9.85338
模特	-9.85338
程式	-9.85338
▁eight	-9.8534
星期	-9.85344
▁epic	-9.85345
▁extraordinary	-9.85345
表现	-9.85345
▁nine	-9.85351
共同	-9.85351
身份	-9.85353
目前	-9.85355
玩乐	-9.85357
相关	-9.85361
值得	-9.85376
身边	-9.85382
▁jealousy	-9.85382
神奇	-9.85385
▁exactly	-9.85398
ability	-9.85407
▁bigge	-9.85409
▁dance	-9.85414
打开	-9.85437
mate	-9.85442
▁dead	-9.85453
创造力	-9.85486
效果	-9.85527
▁J	-9.85837
这段	-9.85852
ger	-9.86001
从来没有	-9.86134
思想	-9.86138
没人	-9.86158
▁source	-9.86237
▁walking	-9.86308
▁record	-9.86331
▁app	-9.86371
▁fly	-9.86388
▁ru	-9.86391
▁我知道	-9.86449
未来的	-9.86458
的观点	-9.86493
其他人	-9.86887
小说	-9.86901
▁systems	-9.86925
人口	-9.87161
22	-9.87201
这儿	-9.87443
We	-9.87638
留下	-9.87648
站	-9.87863
▁artist	-9.87928
W	-9.87951
男孩	-9.88076
所有人	-9.88318
我所	-9.88571
▁如果我	-9.88583
大家都	-9.88702
▁pictures	-9.88867
▁Me	-9.89018
▁comp	-9.89098
我们也	-9.89145
经过	-9.89181
的感受	-9.89222
题	-9.89289
力量	-9.89394
▁100	-9.89547
side	-9.89607
▁realize	-9.89632
创	-9.89656
未	-9.89661
患	-9.89679
▁near	-9.89706
实际	-9.89714
潜	-9.89734
▁但这	-9.89793
识	-9.89814
ized	-9.89826
移	-9.89826
聊	-9.89827
限	-9.89835
积	-9.89839
二十	-9.89845
红	-9.89848
依	-9.89849
忘	-9.89854
衣	-9.89855
坦	-9.89855
酷	-9.89858
福	-9.8986
含	-9.89861
迪	-9.89861
血	-9.89861
骨	-9.89864
凡	-9.89864
猜	-9.89864
占	-9.89864
融	-9.89864
▁Park	-9.89864
▁People	-9.89864
▁World	-9.89864
▁affect	-9.89864
▁bacteria	-9.89864
▁brother	-9.89864
▁creativity	-9.89864
▁motion	-9.89864
▁pattern	-9.89864
▁sequence	-9.89864
▁subject	-9.89864
▁support	-9.89864
厅	-9.89864
荣	-9.89864
越来越	-9.89864
▁serious	-9.89865
▁spirit	-9.89865
旧	-9.89865
▁seven	-9.89865
▁built	-9.89865
▁market	-9.89865
▁emerg	-9.89869
工程师	-9.8987
衣服	-9.89874
思维	-9.89874
▁lost	-9.89875
房间	-9.89876
哪些	-9.89881
暴力	-9.89881
确定	-9.89884
手术	-9.89886
影片	-9.89888
▁center	-9.89888
▁education	-9.89888
形式	-9.89888
连接	-9.89893
像素	-9.89898
▁oil	-9.89907
▁report	-9.8991
理论	-9.89939
从未	-9.89941
▁recently	-9.89979
go	-9.89987
ped	-9.89991
▁因为我	-9.90016
▁poor	-9.90037
组成	-9.90092
过程中	-9.90129
▁flow	-9.90147
小孩	-9.9017
▁Entropica	-9.90188
X	-9.90197
▁Yeah	-9.904
No	-9.90463
一件	-9.9052
而不是	-9.90625
▁learning	-9.90632
例子	-9.90808
真是	-9.90916
▁services	-9.90934
人员	-9.90955
▁这不是	-9.90994
▁loved	-9.91012
▁Can	-9.91162
某个	-9.91208
▁我们知道	-9.91215
投资	-9.91624
第三	-9.91754
能看到	-9.91933
air	-9.91977
的经历	-9.91997
▁sc	-9.92109
ai	-9.92142
▁cur	-9.92146
by	-9.92205
对他们	-9.92407
名字	-9.92468
也没有	-9.92731
一段	-9.92778
投	-9.92788
一项	-9.92944
的结果	-9.93038
▁Ch	-9.93219
对你	-9.9343
▁full	-9.93516
uff	-9.93537
展	-9.93744
port	-9.93953
21	-9.93996
▁connect	-9.94381
▁drop	-9.94436
朝鲜	-9.94445
切	-9.94445
升	-9.94455
▁fun	-9.94485
声音	-9.94529
值	-9.94559
准备	-9.94566
团	-9.94585
兴	-9.94589
圣	-9.94611
考	-9.94621
盖	-9.94624
佛	-9.94625
捕	-9.94625
繁	-9.94626
款	-9.94626
云	-9.94626
付	-9.94626
伟大的	-9.94626
偏	-9.94626
势	-9.94626
障	-9.94626
President	-9.94626
▁Google	-9.94626
▁anymore	-9.94626
▁beyond	-9.94626
▁caught	-9.94626
▁citizen	-9.94626
▁device	-9.94626
▁effort	-9.94626
▁knowledge	-9.94626
▁literally	-9.94626
▁network	-9.94626
▁please	-9.94626
▁remind	-9.94626
▁typical	-9.94626
受害者	-9.94626
恩	-9.94626
▁With	-9.94626
▁screen	-9.94626
▁travel	-9.94626
冷	-9.94626
▁genetic	-9.94627
▁memoriz	-9.94627
▁third	-9.94627
默	-9.94627
▁mom	-9.94627
恐惧	-9.94627
▁dress	-9.94627
足够	-9.94628
▁boat	-9.94629
▁throw	-9.94631
材料	-9.94632
position	-9.94632
显然	-9.94634
▁stopped	-9.94635
特征	-9.94637
保留	-9.94639
▁由于	-9.9464
保持	-9.94643
新闻	-9.94643
积极	-9.94646
增长	-9.94646
毫无	-9.94647
证明	-9.9465
▁我会	-9.94654
阿拉	-9.94654
认知	-9.94655
反应	-9.94662
热爱	-9.94663
建筑师	-9.94666
怎么样	-9.94669
面临	-9.94669
▁complicated	-9.94672
▁supposed	-9.94676
接近	-9.94676
结合	-9.94687
玩游戏	-9.94701
▁stage	-9.9471
正常	-9.94721
▁cool	-9.94726
的数据	-9.94734
▁compar	-9.94767
什么样的	-9.94855
▁add	-9.94862
晚上	-9.9487
有一天	-9.94905
以前	-9.94945
▁post	-9.9496
并非	-9.94973
一家	-9.95046
有什么	-9.95047
▁techniques	-9.95162
▁career	-9.95177
F	-9.95222
roll	-9.9525
What	-9.95256
这个项目	-9.95262
ane	-9.95375
▁happening	-9.95468
所以	-9.95577
▁animals	-9.95651
美国人	-9.95672
▁tw	-9.95809
▁soon	-9.95898
作品	-9.96019
▁我也	-9.96147
巨大	-9.96184
回家	-9.96517
fer	-9.97018
▁但是我们	-9.97128
也可以	-9.97259
把这些	-9.97268
不需要	-9.97413
是很	-9.97427
▁我们要	-9.97502
▁structure	-9.97648
Siftable	-9.97669
能让	-9.97843
▁challenges	-9.98032
▁star	-9.98049
▁17	-9.98061
也有	-9.98094
提出	-9.98122
仅仅	-9.98192
▁wo	-9.98204
▁Ja	-9.98359
▁pieces	-9.98737
▁你知道	-9.99124
充满	-9.99189
残疾	-9.99231
▁Africa	-9.99336
▁Korea	-9.99342
幸	-9.99424
都知道	-9.99447
导	-9.99533
构	-9.99584
永	-9.99607
似	-9.99608
▁count	-9.99609
坚	-9.99611
职	-9.99617
备	-9.99619
判	-9.9962
探	-9.9962
气候	-9.9962
伴	-9.99621
欧	-9.99622
损	-9.99622
歌	-9.99624
兰	-9.99625
执	-9.99626
载	-9.99626
华	-9.99626
悲	-9.99626
意大利	-9.99626
散	-9.99626
楼	-9.99626
礼	-9.99626
私	-9.99626
▁accept	-9.99626
▁domestic	-9.99626
▁obvious	-9.99626
▁period	-9.99626
▁quant	-9.99626
▁reflect	-9.99626
▁transform	-9.99626
洗	-9.99626
派	-9.99626
矿	-9.99626
littleBits	-9.99626
博物馆	-9.99626
呀	-9.99626
▁smart	-9.99627
▁tiny	-9.99627
▁common	-9.99628
革命	-9.99628
▁usually	-9.99628
杂志	-9.99628
▁fix	-9.99629
▁vacation	-9.99629
广告	-9.99629
消息	-9.99629
状态	-9.99629
disabled	-9.99631
▁receiv	-9.99632
报告	-9.99632
灵感	-9.99634
▁damage	-9.99634
幸运	-9.99634
▁fill	-9.99636
根据	-9.99638
提醒	-9.99638
胜利	-9.99641
限制	-9.99641
▁issue	-9.99645
停止	-9.99646
定义	-9.99647
▁respect	-9.99654
总统	-9.99655
▁Just	-9.99662
专家	-9.99676
行业	-9.99689
记忆自我	-9.99699
▁force	-9.99708
▁raise	-9.9971
相当	-9.99711
▁mass	-9.99711
▁fight	-9.99713
▁passion	-9.99731
为何	-9.99734
▁table	-9.99747
数量	-9.99748
▁rate	-9.99751
Yes	-9.99765
ought	-9.99772
▁tools	-9.99774
▁arm	-9.99811
行动	-9.99812
▁send	-9.99831
▁movies	-9.99855
成本	-9.99861
再次	-9.99897
▁certainly	-9.99901
▁因为他们	-9.99903
这样一个	-10.0002
不错	-10.0006
▁May	-10.0007
▁scan	-10.001
不得不	-10.0015
话题	-10.0017
中间	-10.0025
的学生	-10.004
每次	-10.0042
ani	-10.0044
之间的	-10.0045
O	-10.0047
▁eyes	-10.005
18	-10.0059
这只是	-10.0064
▁closet	-10.0083
想想	-10.01
▁dog	-10.0114
▁understanding	-10.0118
要做的	-10.0131
▁Then	-10.0139
想让	-10.016
目	-10.0173
住在	-10.0199
的名字	-10.0203
standing	-10.0213
给他们	-10.023
的记忆	-10.0236
仅仅是	-10.0236
父母	-10.0248
efore	-10.0289
▁late	-10.0304
▁我们会	-10.0315
▁在我们	-10.0336
▁touch	-10.0341
十亿	-10.0346
▁Wa	-10.041
▁或是	-10.042
采	-10.0424
社	-10.0474
▁low	-10.0477
柜	-10.0481
▁moments	-10.0482
mark	-10.0485
端	-10.0486
困	-10.0487
旁	-10.0487
温	-10.0487
价	-10.0487
仍	-10.0488
顾	-10.0488
埃及	-10.0488
废	-10.0488
陷	-10.0488
户	-10.0488
杰	-10.0489
摆	-10.0489
皮	-10.0489
烧	-10.0489
丽	-10.0489
恐	-10.0489
听说过	-10.0489
您	-10.0489
乱	-10.0489
倭黑猩猩	-10.0489
搬	-10.0489
é	-10.0489
感兴趣	-10.0489
毛	-10.0489
洞	-10.0489
禁	-10.0489
阻	-10.0489
▁adult	-10.0489
▁augment	-10.0489
▁colleague	-10.0489
▁consequence	-10.0489
▁consider	-10.0489
▁evidence	-10.0489
▁organism	-10.0489
▁positive	-10.0489
劳	-10.0489
宇宙	-10.0489
隔	-10.0489
Nathaniel	-10.0489
▁task	-10.0489
挺	-10.0489
馆	-10.0489
▁worst	-10.0489
培养	-10.0489
▁honest	-10.0489
▁First	-10.0489
▁adapt	-10.0489
AED	-10.0489
▁birth	-10.0489
▁jump	-10.0489
妻子	-10.0489
▁began	-10.0489
石油	-10.0489
Steve	-10.0489
▁cannot	-10.0489
降低	-10.049
▁park	-10.049
代码	-10.049
医院	-10.049
▁lions	-10.049
调查	-10.049
接触	-10.049
▁rich	-10.049
▁technologies	-10.049
计算机	-10.049
▁disability	-10.0491
家庭暴力	-10.0491
病毒	-10.0491
表演	-10.0491
▁Today	-10.0491
▁taste	-10.0491
传统	-10.0492
▁draw	-10.0492
▁wish	-10.0492
现代	-10.0492
ology	-10.0493
某种	-10.0493
▁leg	-10.0493
房子	-10.0494
▁aim	-10.0494
▁India	-10.0495
都没有	-10.0495
▁nice	-10.0496
日本	-10.0499
▁quickly	-10.05
方向	-10.0501
white	-10.0501
▁lesson	-10.0502
▁pack	-10.0502
难以	-10.0503
ideo	-10.0504
称为	-10.0506
企业	-10.0508
▁nearly	-10.0509
两者	-10.051
给大家	-10.051
▁从而	-10.0512
放到	-10.0515
imagin	-10.0515
会议	-10.0516
基本上	-10.052
▁fit	-10.0526
▁protect	-10.0527
后来	-10.0541
机器人	-10.0547
最好	-10.0547
▁他们会	-10.0555
一场	-10.0556
▁pan	-10.0557
▁pixels	-10.0559
的力量	-10.0564
▁site	-10.0575
的历史	-10.0577
use	-10.0578
更快	-10.0584
ble	-10.0589
▁growing	-10.0594
You	-10.0609
comm	-10.0614
反对	-10.0619
还要	-10.0624
其中的	-10.0634
fold	-10.0635
▁tons	-10.0642
▁decisions	-10.0647
▁notice	-10.0655
其实是	-10.0659
之中	-10.0663
为我们	-10.0673
▁cru	-10.0673
我知道	-10.0678
▁West	-10.068
是因为我	-10.0681
▁forest	-10.0711
这些照片	-10.0713
走进	-10.0714
▁surviv	-10.0749
35	-10.0756
下一个	-10.0759
历	-10.0767
的例子	-10.0779
是怎样	-10.0782
▁Th	-10.0783
为你	-10.0788
万人	-10.0793
底	-10.0818
▁forms	-10.0846
你知道	-10.0857
一块	-10.0884
见过	-10.0901
因为他们	-10.0918
思	-10.0936
这点	-10.094
最大	-10.0947
▁你就	-10.0949
▁cor	-10.096
fter	-10.0982
存	-10.0983
▁batt	-10.1012
试着	-10.1013
且	-10.1029
显	-10.1041
▁complex	-10.1042
射	-10.1042
农	-10.1042
胜	-10.1043
查	-10.1043
醒	-10.1043
围	-10.1043
录	-10.1044
隐	-10.1044
丝	-10.1044
监	-10.1044
迎	-10.1044
脸	-10.1044
鼓励	-10.1044
博	-10.1044
呆	-10.1044
架	-10.1044
giving	-10.1045
▁Chinese	-10.1045
▁Internet	-10.1045
▁available	-10.1045
▁behavior	-10.1045
▁climate	-10.1045
▁global	-10.1045
▁grandmother	-10.1045
▁impossible	-10.1045
▁medicine	-10.1045
▁necessar	-10.1045
▁perspective	-10.1045
▁population	-10.1045
▁vaccine	-10.1045
▁wife	-10.1045
套	-10.1045
洛杉矶	-10.1045
狗	-10.1045
财	-10.1045
露	-10.1045
▁cheap	-10.1045
同性恋	-10.1045
摩	-10.1045
谋	-10.1045
▁political	-10.1045
区域	-10.1045
灵魂	-10.1045
贫穷	-10.1045
▁honor	-10.1045
▁rules	-10.1045
毕业	-10.1045
谷歌	-10.1045
wood	-10.1045
▁essential	-10.1045
▁slide	-10.1045
ware	-10.1045
包含	-10.1045
方案	-10.1045
▁changing	-10.1045
▁slavery	-10.1045
证据	-10.1045
印度	-10.1046
案例	-10.1046
创业	-10.1046
冰山	-10.1046
修复	-10.1046
曲线	-10.1046
▁anybody	-10.1047
学院	-10.1047
对我来说	-10.1048
高兴	-10.1049
▁innovation	-10.1049
打电话	-10.1051
具体	-10.1052
▁stone	-10.1052
深入	-10.1055
▁suddenly	-10.1055
分类	-10.1056
▁list	-10.1058
想象力	-10.106
▁size	-10.1062
foot	-10.1063
开发	-10.1064
看待	-10.1067
▁path	-10.1067
▁main	-10.1069
随着	-10.1071
▁比如说	-10.1073
时期	-10.1078
和平	-10.109
分子	-10.1095
▁meeting	-10.1103
▁killed	-10.1106
▁scientists	-10.1108
▁wonderful	-10.1109
27	-10.1119
路上	-10.1173
段	-10.1173
Do	-10.1186
▁现在我	-10.1186
J	-10.1189
U	-10.1193
like	-10.1205
都很	-10.1209
▁mistakes	-10.1211
比如	-10.1212
把这个	-10.1237
▁Ka	-10.1243
这一点	-10.1246
还在	-10.1266
▁structures	-10.127
▁因为这	-10.129
的父母	-10.1307
令	-10.1335
▁characters	-10.1337
一片	-10.1346
来到	-10.1351
快速	-10.136
的可能性	-10.1384
▁Mar	-10.1415
▁non	-10.1425
▁compet	-10.1432
看到了	-10.1433
唯一的	-10.1435
ging	-10.1449
岁的时候	-10.145
▁numbers	-10.1458
有所	-10.1487
▁relat	-10.1528
▁combin	-10.1553
什么呢	-10.1569
示	-10.157
▁shin	-10.1587
▁interact	-10.1603
ney	-10.1607
求	-10.1619
的大脑	-10.1619
态	-10.1626
模	-10.1627
▁equ	-10.1628
暴	-10.1629
担	-10.1629
彩	-10.163
魔	-10.163
在线	-10.163
洲	-10.1631
森	-10.1631
父	-10.1631
划	-10.1631
▁basic	-10.1631
告	-10.1631
纸	-10.1632
包	-10.1632
材	-10.1632
广	-10.1632
戏	-10.1632
笔	-10.1632
追	-10.1632
敢	-10.1632
▁access	-10.1632
欢	-10.1633
贵	-10.1633
stitution	-10.1633
翻	-10.1633
草	-10.1633
▁architect	-10.1633
典	-10.1633
闪	-10.1633
哦	-10.1633
塔	-10.1633
末	-10.1633
雪	-10.1633
▁categories	-10.1633
▁century	-10.1633
▁choosing	-10.1633
▁cloud	-10.1633
▁graduate	-10.1633
▁married	-10.1633
▁negative	-10.1633
▁ocean	-10.1633
▁participat	-10.1633
▁scientific	-10.1633
▁shift	-10.1633
▁societies	-10.1633
▁straight	-10.1633
▁suicide	-10.1633
▁taught	-10.1633
▁truly	-10.1633
▁unique	-10.1633
▁volunteer	-10.1633
志愿者	-10.1633
▁attention	-10.1633
▁focus	-10.1633
▁hospital	-10.1633
▁appear	-10.1633
▁expert	-10.1633
托	-10.1633
逃	-10.1633
▁among	-10.1633
▁slow	-10.1633
▁summer	-10.1633
邻居	-10.1633
颜色	-10.1633
震惊	-10.1633
成绩	-10.1633
彻底	-10.1633
▁bird	-10.1633
反应堆	-10.1633
▁Chris	-10.1633
灭绝	-10.1633
客户	-10.1633
▁genes	-10.1634
期待	-10.1634
表示	-10.1634
▁arriv	-10.1634
▁limit	-10.1634
资源	-10.1634
▁sent	-10.1634
保护	-10.1634
的同事	-10.1634
Baker	-10.1634
这项技术	-10.1635
魔法	-10.1635
机构	-10.1635
谈话	-10.1636
心脏	-10.1636
刚才	-10.1637
是为了	-10.1637
情感	-10.1637
测量	-10.1637
表明	-10.1638
管理	-10.1639
期间	-10.1639
传播	-10.1639
▁abuse	-10.1641
▁carry	-10.1641
对待	-10.1642
▁谢谢大家	-10.1644
提高	-10.1644
▁race	-10.1646
还没	-10.165
▁waste	-10.1651
事件	-10.1651
英里	-10.1653
之外	-10.1657
▁sell	-10.166
这本书	-10.1664
▁healthy	-10.1667
▁pair	-10.1681
▁older	-10.1691
另	-10.1692
有些人	-10.172
▁died	-10.1745
看过	-10.1748
我们应该	-10.175
三十	-10.1773
这个词	-10.1779
告诉我们	-10.1781
▁thank	-10.1787
N	-10.1793
相同的	-10.1807
H	-10.1811
虽然	-10.1815
power	-10.1818
年来	-10.183
▁我们现在	-10.183
forced	-10.1835
dical	-10.1847
一份	-10.1857
让人们	-10.1858
作为一个	-10.188
部电影	-10.1887
成为了	-10.1963
因为我们	-10.1984
的价值	-10.2006
▁我们将	-10.2008
见到	-10.201
▁em	-10.2042
的作品	-10.2081
▁personal	-10.2081
一周	-10.2086
从一个	-10.2113
家里	-10.2128
成长	-10.2141
的速度	-10.2147
也不是	-10.2158
▁然后他	-10.2171
的权利	-10.2181
明显	-10.2196
进来	-10.2203
你要	-10.2223
寻	-10.2224
izing	-10.2224
我们看到	-10.2233
仅	-10.2238
巨	-10.2247
▁fla	-10.2247
轻	-10.2249
注意	-10.225
舞	-10.2252
素	-10.2252
充	-10.2254
司	-10.2256
▁conscious	-10.2256
政	-10.2256
害	-10.2256
既	-10.2256
静	-10.2256
婚	-10.2256
杂	-10.2257
还能	-10.2257
页	-10.2257
状	-10.2257
呼	-10.2257
▁vari	-10.2258
穷	-10.2258
逐	-10.2258
倾	-10.2258
吓	-10.2258
漫	-10.2258
银	-10.2258
零	-10.2258
借	-10.2258
啦	-10.2258
徒	-10.2258
班	-10.2258
略	-10.2258
诺	-10.2258
TEMPT	-10.2258
▁California	-10.2258
▁Instead	-10.2258
▁anatomy	-10.2258
▁beauty	-10.2258
▁benefit	-10.2258
▁breath	-10.2258
▁communication	-10.2258
▁condition	-10.2258
▁creature	-10.2258
▁introduce	-10.2258
▁journey	-10.2258
▁neighbor	-10.2258
▁opinion	-10.2258
▁patients	-10.2258
▁possibilities	-10.2258
▁progress	-10.2258
▁provide	-10.2258
▁robot	-10.2258
▁stood	-10.2258
▁surgery	-10.2258
允许	-10.2258
献	-10.2258
萨	-10.2258
裂	-10.2258
truck	-10.2258
▁check	-10.2258
▁feet	-10.2258
丰富	-10.2258
冠	-10.2258
奴役	-10.2258
烈	-10.2258
鲁	-10.2258
▁moon	-10.2258
▁spread	-10.2258
湖	-10.2258
▁blue	-10.2258
嗯	-10.2258
▁fresh	-10.2258
▁print	-10.2258
▁pull	-10.2258
▁bullet	-10.2258
大规模	-10.2258
▁title	-10.2258
▁corner	-10.2258
范围	-10.2258
检查	-10.2258
逆境	-10.2258
所谓的	-10.2258
宗教	-10.2258
▁forget	-10.2258
精灵	-10.2258
清楚	-10.2258
▁dangerous	-10.2258
▁admit	-10.2258
危机	-10.2258
凯文	-10.2258
家伙	-10.2259
▁sign	-10.2259
风险	-10.2259
规划	-10.2259
▁jam	-10.2259
▁spoke	-10.2259
演示	-10.2259
模块	-10.2259
▁directly	-10.2259
二氧化碳排放	-10.2259
满足	-10.2259
▁gamers	-10.2259
▁resource	-10.2259
机遇	-10.2259
▁enable	-10.226
句话	-10.226
极端	-10.226
片断	-10.226
board	-10.2261
公共	-10.2261
▁ultimately	-10.2262
基金	-10.2262
▁weird	-10.2262
常常	-10.2263
▁mention	-10.2263
▁incredible	-10.2263
重建	-10.2263
▁shot	-10.2263
制度	-10.2264
市场	-10.2265
第二个	-10.2266
清理	-10.2266
▁effective	-10.2267
关心	-10.2268
ify	-10.2268
late	-10.2269
▁sit	-10.2269
注意到	-10.227
今年	-10.227
▁curve	-10.2273
各个	-10.2274
▁bar	-10.2276
绝对	-10.2276
运用	-10.2277
观看	-10.2278
年里	-10.2278
取得	-10.2279
朝鲜人	-10.2282
▁metal	-10.229
▁vultures	-10.229
穿过	-10.2291
对话	-10.2293
▁map	-10.2294
一半	-10.2295
▁action	-10.2297
面前	-10.2298
▁sum	-10.2298
不愿意	-10.2301
vision	-10.2301
▁captur	-10.2317
物体	-10.2318
▁Tom	-10.232
▁wind	-10.2323
从事	-10.233
帮助他们	-10.2335
几百	-10.2337
很快	-10.234
写作	-10.2345
ink	-10.2353
理性	-10.2355
▁options	-10.2355
最多	-10.236
不好	-10.2368
harm	-10.2371
▁Mr	-10.2376
▁streets	-10.2381
这部电影	-10.2388
的人生	-10.2396
学会	-10.2398
▁laws	-10.2434
美好	-10.2438
出去	-10.2459
生物学	-10.251
个体	-10.2512
这一切	-10.2515
uit	-10.2516
的经验	-10.2524
没有人	-10.253
球员	-10.2561
▁gi	-10.2563
收到	-10.2577
其中一个	-10.2587
▁Don	-10.2604
produc	-10.2624
▁Hol	-10.2631
经历了	-10.2631
当中	-10.264
▁beat	-10.2688
▁San	-10.2695
▁mistake	-10.2727
▁decision	-10.2727
你可以看到	-10.2727
四个	-10.274
或是	-10.2747
创造出	-10.2764
很少	-10.2794
过来	-10.2801
一代	-10.281
能做	-10.2824
像这样	-10.2838
相比	-10.2841
这次	-10.2842
一群	-10.2848
都可以	-10.2854
一千	-10.2881
获	-10.2885
一件事	-10.2886
给自己	-10.289
▁recent	-10.2918
▁office	-10.2919
▁thre	-10.292
码	-10.2921
乎	-10.2922
童	-10.2922
绿	-10.2923
屋	-10.2923
灭	-10.2924
浪	-10.2924
堆	-10.2924
朝	-10.2924
鲜	-10.2924
营	-10.2924
施	-10.2924
延	-10.2924
轮	-10.2924
沙	-10.2924
玛	-10.2924
练	-10.2924
愤	-10.2924
碰	-10.2924
糟	-10.2924
吉	-10.2924
咖	-10.2924
登	-10.2924
睡	-10.2924
陆	-10.2924
Drucker	-10.2924
YouTube	-10.2924
▁micro	-10.2924
爆炸	-10.2924
米格尔	-10.2924
良	-10.2924
Miguel	-10.2924
▁economic	-10.2924
▁invite	-10.2924
▁maximiz	-10.2924
▁mountain	-10.2924
▁popular	-10.2924
▁response	-10.2924
▁somehow	-10.2924
▁suggest	-10.2924
▁surprise	-10.2924
▁understood	-10.2924
▁zero	-10.2924
兹	-10.2924
扩增实境	-10.2924
激励	-10.2924
菜	-10.2924
▁either	-10.2924
▁garden	-10.2924
▁maintain	-10.2924
▁worry	-10.2924
乘	-10.2924
井	-10.2924
秀	-10.2924
称之为	-10.2924
篇	-10.2924
访	-10.2924
Paul	-10.2924
▁blow	-10.2924
▁error	-10.2924
▁trip	-10.2924
偷	-10.2924
典型的	-10.2924
搞	-10.2924
赶	-10.2924
伸	-10.2924
究竟	-10.2924
腿	-10.2924
盖茨	-10.2924
▁ahead	-10.2924
饥荒	-10.2925
果酱	-10.2925
▁except	-10.2925
捕捉	-10.2925
▁Even	-10.2925
诊断	-10.2925
左边	-10.2925
▁pressure	-10.2925
便宜	-10.2925
寻求	-10.2925
怀疑	-10.2925
消耗	-10.2925
▁Think	-10.2925
▁consume	-10.2925
▁modern	-10.2925
分析	-10.2925
▁tough	-10.2925
互相	-10.2925
相互	-10.2925
互动	-10.2925
绝望	-10.2925
▁fellow	-10.2926
▁好吧	-10.2926
细节	-10.2926
破坏	-10.2926
▁detail	-10.2926
输入	-10.2926
▁wide	-10.2926
▁standard	-10.2926
▁radical	-10.2926
期望	-10.2926
温度	-10.2926
实验室	-10.2926
产品	-10.2927
神圣	-10.2927
▁finger	-10.2927
往往	-10.2927
▁fiction	-10.2927
笑声	-10.2927
工程	-10.2927
热情	-10.2927
深刻	-10.2928
一段时间	-10.2929
公民	-10.2929
独特	-10.293
整合	-10.293
满意	-10.293
压力	-10.2931
Free	-10.2932
人均	-10.2932
德国	-10.2933
部门	-10.2933
定位	-10.2935
终于	-10.2936
潜能	-10.2939
作家	-10.2943
▁这意味着	-10.2945
▁City	-10.2946
▁humanity	-10.295
患有	-10.2952
▁bigger	-10.2953
黑人	-10.2953
ility	-10.2954
两种	-10.2955
另外一个	-10.2958
富有	-10.296
到达	-10.2961
来源	-10.2961
速度	-10.2963
这项	-10.2972
▁cat	-10.2974
▁我记得	-10.2981
▁whatever	-10.2983
▁grade	-10.2989
这张照片	-10.2992
记忆力	-10.3
▁rare	-10.3027
成就	-10.3035
2011	-10.3059
不可	-10.3063
▁br	-10.3071
▁His	-10.3078
▁processing	-10.3098
10,000	-10.3103
感觉到	-10.312
跟我	-10.3125
▁describe	-10.3169
body	-10.3176
还会	-10.3183
▁factor	-10.319
though	-10.3199
能把	-10.32
如果我们	-10.3205
可以看到	-10.3227
出现在	-10.3238
▁successful	-10.3269
这些问题	-10.3271
aking	-10.3275
▁survive	-10.3293
不喜欢	-10.3297
▁meant	-10.3314
moved	-10.3317
ja	-10.3324
可能性	-10.3336
对自己	-10.3367
17	-10.3388
观点	-10.3396
yone	-10.3403
hoo	-10.3421
75	-10.3423
▁law	-10.344
▁month	-10.3444
▁mu	-10.3462
raw	-10.3465
▁Dr	-10.3474
off	-10.3493
▁symbol	-10.3507
那就	-10.3526
是如此	-10.3556
就没有	-10.356
今	-10.3571
unk	-10.3573
尝	-10.3578
aving	-10.3588
本书	-10.3609
让他	-10.3609
▁lie	-10.3615
hose	-10.3622
▁strange	-10.3623
▁lab	-10.3627
房	-10.3629
梦	-10.3631
院	-10.3631
因此	-10.3632
系	-10.3633
启	-10.3633
脏	-10.3635
故	-10.3635
▁multi	-10.3636
剂	-10.3636
元	-10.3637
版	-10.3637
普	-10.3637
评	-10.3637
控	-10.3637
章	-10.3637
按	-10.3637
尤其	-10.3638
吸	-10.3638
罪	-10.3638
刺	-10.3638
松	-10.3638
休	-10.3638
▁psych	-10.3638
汉	-10.3639
抱	-10.3639
肉	-10.3639
匹	-10.3639
丁	-10.3639
塑	-10.3639
稍	-10.3639
针	-10.3639
2000	-10.3639
峰	-10.3639
摩加迪休	-10.3639
瓶	-10.3639
阴	-10.3639
LHC	-10.3639
▁method	-10.3639
余	-10.3639
宝	-10.3639
幻灯片	-10.3639
盒	-10.3639
碳	-10.3639
绘	-10.3639
雇	-10.3639
▁Like	-10.3639
▁Mogadishu	-10.3639
▁Proust	-10.3639
▁Time	-10.3639
▁client	-10.3639
▁communicate	-10.3639
▁concrete	-10.3639
▁degree	-10.3639
▁dramatic	-10.3639
▁easily	-10.3639
▁himself	-10.3639
▁miracle	-10.3639
▁museum	-10.3639
▁nuclear	-10.3639
▁require	-10.3639
▁significant	-10.3639
▁specific	-10.3639
▁universe	-10.3639
华盛顿	-10.3639
库	-10.3639
抽	-10.3639
绕	-10.3639
货	-10.3639
雨	-10.3639
iPad	-10.3639
•	-10.3639
▁element	-10.3639
▁protein	-10.3639
奔	-10.3639
漂亮的	-10.3639
▁define	-10.3639
▁promise	-10.3639
拜	-10.3639
箱	-10.3639
虐待	-10.3639
▁failure	-10.3639
▁message	-10.3639
批	-10.3639
曼	-10.3639
▁Japan	-10.3639
▁biology	-10.3639
▁predict	-10.3639
利比亚	-10.3639
▁text	-10.3639
▁dozen	-10.3639
▁funny	-10.3639
▁tomato	-10.3639
屏幕	-10.3639
▁contest	-10.3639
普遍	-10.3639
▁eventually	-10.3639
gender	-10.3639
▁planning	-10.3639
汽车	-10.3639
阅读	-10.3639
▁above	-10.3639
勇敢	-10.3639
▁running	-10.3639
cycl	-10.3639
衡量	-10.3639
操作	-10.3639
▁pill	-10.3639
假设	-10.3639
质疑	-10.3639
▁正如	-10.364
蓝色	-10.364
▁brick	-10.364
观念	-10.364
国际	-10.364
专业	-10.3641
▁apartment	-10.3641
▁partner	-10.3641
▁river	-10.3641
儿童	-10.3641
建议	-10.3641
战争	-10.3641
▁capable	-10.3641
紧张	-10.3641
▁hair	-10.3642
完美	-10.3642
假期	-10.3643
▁paper	-10.3643
的看法	-10.3643
▁equation	-10.3644
感知	-10.3644
原则	-10.3644
▁nobody	-10.3645
在接下来的	-10.3645
一座	-10.3645
下降	-10.3645
飞机	-10.3646
▁objective	-10.3647
▁version	-10.3648
画面	-10.3648
比例	-10.3649
▁gay	-10.3649
几个月	-10.365
如同	-10.365
电视	-10.365
▁involved	-10.3651
前往	-10.3651
▁green	-10.3651
建筑物	-10.3652
背后	-10.3655
▁lower	-10.3657
▁Le	-10.3657
开车	-10.3658
▁Nation	-10.3659
▁也就是说	-10.3662
更好地	-10.3662
▁rain	-10.3665
几天	-10.3665
每周	-10.3666
▁bare	-10.3667
▁training	-10.367
没什么	-10.3671
▁dig	-10.3671
不起	-10.3672
▁gri	-10.3676
享受	-10.3677
这个观点	-10.3682
年后	-10.3684
后面	-10.369
我的家人	-10.3702
arch	-10.3705
认识到	-10.3711
▁developing	-10.3712
我必须	-10.3719
个小时	-10.3729
到处	-10.373
我们不能	-10.373
权利	-10.3732
!”	-10.3744
去做	-10.3747
事儿	-10.3759
▁reading	-10.3775
人物	-10.3787
▁我们发现	-10.3805
▁rid	-10.3806
▁believed	-10.3818
很简单	-10.3899
▁Hu	-10.3933
amp	-10.3942
▁fo	-10.3948
即使	-10.3972
两年	-10.3981
▁heat	-10.4011
全新	-10.4019
了解到	-10.4039
ible	-10.4046
实际上是	-10.407
民主	-10.4072
验	-10.4095
也就是	-10.411
▁lea	-10.4115
美元	-10.4118
加速	-10.4125
就开始	-10.4133
说话	-10.414
ett	-10.4154
▁nation	-10.42
▁exc	-10.4204
▁minute	-10.4211
oke	-10.4213
也很	-10.4218
千万	-10.4238
有能力	-10.4245
术	-10.4258
▁Ra	-10.4288
99	-10.4319
功	-10.4322
▁ti	-10.433
▁sl	-10.4346
ular	-10.4354
▁gla	-10.4368
▁quick	-10.4391
幅	-10.4391
让你们	-10.4393
弹	-10.4398
▁ski	-10.44
增	-10.4402
律	-10.4403
▁educat	-10.4404
▁major	-10.4405
曲	-10.4406
险	-10.4406
触	-10.4406
藏	-10.4406
▁elect	-10.4406
志	-10.4407
赞	-10.4407
纪	-10.4407
勇	-10.4407
海洋	-10.4408
著	-10.4408
kept	-10.4408
径	-10.4408
旋	-10.4408
♫	-10.4408
熟	-10.4408
沿	-10.4408
计算	-10.4408
安慰剂	-10.4408
沥青	-10.4408
肯尼亚	-10.4408
丢	-10.4408
丹	-10.4408
厂	-10.4408
图书馆	-10.4408
恰	-10.4408
盘	-10.4408
▁Angeles	-10.4408
▁University	-10.4408
▁Washington	-10.4408
▁application	-10.4408
▁broad	-10.4408
▁circle	-10.4408
▁crisis	-10.4408
▁display	-10.4408
▁families	-10.4408
▁famous	-10.4408
▁iceberg	-10.4408
▁intelligent	-10.4408
▁magazine	-10.4408
▁peace	-10.4408
▁possibility	-10.4408
▁poverty	-10.4408
▁somewhere	-10.4408
▁studie	-10.4408
▁surgeon	-10.4408
▁tradition	-10.4408
▁written	-10.4408
乡	-10.4408
拖	-10.4408
普鲁斯特	-10.4408
蒂	-10.4408
▁respond	-10.4408
▁responsib	-10.4408
▁speech	-10.4408
副	-10.4408
棉花糖	-10.4408
欲	-10.4408
▁charge	-10.4408
▁deliver	-10.4408
▁earlier	-10.4408
▁window	-10.4408
午	-10.4408
席	-10.4408
补	-10.4408
▁Arab	-10.4408
▁crowd	-10.4408
堂	-10.4408
烂	-10.4408
累	-10.4408
阿富汗	-10.4408
▁prepar	-10.4408
▁wild	-10.4408
辆	-10.4408
▁content	-10.4408
▁match	-10.4408
ultural	-10.4408
汤姆	-10.4408
邀请	-10.4408
麻烦	-10.4408
为什么不	-10.4408
冒险	-10.4408
▁instance	-10.4408
兴奋	-10.4408
隐藏	-10.4408
▁link	-10.4408
幸福	-10.4409
稳定	-10.4409
电池	-10.4409
报纸	-10.4409
判断	-10.4409
消费	-10.4409
积木	-10.4409
▁grand	-10.4409
教授	-10.4409
尊重	-10.441
独立	-10.441
▁agree	-10.441
▁direction	-10.441
法律	-10.441
客观	-10.441
超级	-10.4411
基本概念	-10.4411
商业	-10.4411
▁multipl	-10.4411
▁enter	-10.4412
风格	-10.4412
工业	-10.4412
▁relative	-10.4413
药物	-10.4413
乐观	-10.4414
信任感	-10.4415
重复	-10.4415
▁stick	-10.4416
动画	-10.4416
▁mid	-10.4416
负面	-10.4418
准备好	-10.4419
▁desp	-10.442
内部	-10.4425
节目	-10.4426
▁inspired	-10.4428
ified	-10.4428
感受	-10.443
这么多	-10.4431
▁inspiration	-10.4432
数字化	-10.4432
告诉你们	-10.4436
▁mental	-10.4438
▁apply	-10.4438
▁early	-10.4439
外面	-10.4443
那儿	-10.4444
▁burning	-10.4447
电子	-10.4453
穿着	-10.4454
不久	-10.4457
▁grit	-10.4458
▁continue	-10.4461
我们认为	-10.4463
!"	-10.4468
▁higher	-10.4474
我已经	-10.4477
上传	-10.4485
事业	-10.4494
▁speaking	-10.4501
▁Sh	-10.4509
ically	-10.4513
把它们	-10.4519
▁你需要	-10.452
▁greater	-10.4527
展现	-10.4544
给他	-10.4547
这个想法	-10.4555
一部	-10.4565
有机会	-10.4584
▁Ap	-10.4586
eign	-10.4588
▁flu	-10.4595
出于	-10.4597
▁twentysomething	-10.4616
让它	-10.4631
这个数字	-10.4635
一个例子	-10.4641
就越	-10.4651
这个故事	-10.469
当前	-10.4778
走到	-10.4797
什么时候	-10.48
How	-10.4802
hard	-10.4823
▁revolution	-10.4862
只需	-10.4867
evolutionary	-10.4872
▁dive	-10.4876
▁今天我	-10.4935
不曾	-10.4958
多个	-10.4999
待	-10.5008
▁function	-10.5018
说道	-10.5034
▁它将	-10.5037
资本	-10.5039
一种新	-10.5044
▁service	-10.5044
magine	-10.5087
较	-10.5089
▁player	-10.509
duction	-10.5104
▁Jo	-10.5107
covered	-10.5148
就会有	-10.5159
进去	-10.5165
动机	-10.519
▁burn	-10.52
许	-10.5214
不再是	-10.5219
降	-10.5233
ould	-10.5234
印	-10.5236
怕	-10.5236
spect	-10.5237
▁react	-10.5238
答	-10.5238
始	-10.5238
▁fea	-10.5239
购	-10.5239
映	-10.524
供	-10.524
挑	-10.524
搭	-10.524
冲	-10.524
辩	-10.5241
油	-10.5241
圈	-10.5241
索	-10.5241
耗	-10.5241
液	-10.5241
掌	-10.5241
泛	-10.5241
摸	-10.5241
虚	-10.5241
磁	-10.5241
避	-10.5241
荒	-10.5241
莫	-10.5241
厌	-10.5241
郁	-10.5241
偶	-10.5241
贴	-10.5241
躁	-10.5241
纹	-10.5241
雷	-10.5241
奖	-10.5241
娜	-10.5241
桶	-10.5241
窗	-10.5241
西红柿	-10.5241
喂	-10.5241
戴	-10.5241
携	-10.5241
枪	-10.5241
肥	-10.5241
额	-10.5241
NASA	-10.5241
▁Europe	-10.5241
▁claim	-10.5241
互联网	-10.5241
侵	-10.5241
分辨率	-10.5241
宾	-10.5241
洪都拉斯	-10.5241
签	-10.5241
西班牙	-10.5241
诞	-10.5241
confident	-10.5241
▁Jersey	-10.5241
▁Kevin	-10.5241
▁Slaves	-10.5241
▁account	-10.5241
▁advance	-10.5241
▁bonobo	-10.5241
▁childhood	-10.5241
▁component	-10.5241
▁diversity	-10.5241
▁drink	-10.5241
▁driving	-10.5241
▁emergency	-10.5241
▁encourage	-10.5241
▁enslaved	-10.5241
▁genius	-10.5241
▁industry	-10.5241
▁jeans	-10.5241
▁landscape	-10.5241
▁marshmallow	-10.5241
▁random	-10.5241
▁shock	-10.5241
▁similar	-10.5241
▁software	-10.5241
▁surface	-10.5241
▁terrible	-10.5241
▁tomorrow	-10.5241
▁visual	-10.5241
▁wheelchair	-10.5241
尖	-10.5241
裤	-10.5241
▁prison	-10.5241
▁session	-10.5241
健	-10.5241
桌	-10.5241
浮	-10.5241
的智慧	-10.5241
祝	-10.5241
▁guess	-10.5241
▁otherwise	-10.5241
▁policy	-10.5241
加拿大	-10.5241
黄	-10.5241
▁exciting	-10.5241
▁floor	-10.5241
▁religio	-10.5241
▁general	-10.5241
储存	-10.5241
情绪	-10.5241
拒绝	-10.5241
▁scene	-10.5241
▁series	-10.5241
信仰	-10.5241
政策	-10.5241
▁Fro	-10.5241
▁bomb	-10.5241
软件	-10.5241
避免	-10.5241
用它来	-10.5242
▁track	-10.5242
▁comment	-10.5242
瞬间	-10.5242
呼吸	-10.5242
▁accessible	-10.5242
黑暗	-10.5242
追求	-10.5242
建设	-10.5242
欧洲	-10.5242
▁wire	-10.5242
wave	-10.5242
▁alternative	-10.5242
喝彩	-10.5242
▁bond	-10.5242
伤害	-10.5242
愿望	-10.5242
网站	-10.5242
▁Egyptian	-10.5242
领导	-10.5242
废料	-10.5243
改善	-10.5243
▁electricity	-10.5243
夏天	-10.5243
彼此	-10.5243
按照	-10.5243
▁sentence	-10.5243
差异	-10.5243
▁practice	-10.5243
忘记	-10.5243
评论	-10.5243
▁range	-10.5243
购物	-10.5243
▁brave	-10.5243
忍受	-10.5243
死刑	-10.5243
片段	-10.5243
▁south	-10.5243
▁sustainable	-10.5243
球队	-10.5244
理念	-10.5244
旅行	-10.5244
版本	-10.5244
预测	-10.5244
简直	-10.5244
争取	-10.5245
▁extra	-10.5245
赢得	-10.5246
运作	-10.5246
▁wake	-10.5246
周五	-10.5246
演员	-10.5247
之所以	-10.5247
潜水	-10.5247
美金	-10.5247
设想	-10.5248
▁select	-10.5248
结论	-10.5248
▁除了	-10.5248
▁opera	-10.5249
子弹	-10.5249
▁collective	-10.5249
主义者	-10.5249
永远不会	-10.5249
全国	-10.5253
采用	-10.5256
非常重要	-10.5258
▁stranger	-10.526
当今	-10.526
tech	-10.526
▁yes	-10.526
▁officer	-10.5261
即将	-10.5262
流行	-10.5262
而已	-10.5262
现实世界	-10.5265
iction	-10.5265
▁tap	-10.5269
▁Does	-10.527
▁waiting	-10.5273
不幸	-10.5273
开心	-10.5275
就像是	-10.5277
这样的建筑	-10.528
原来	-10.5285
▁African	-10.5291
小组	-10.5295
▁gray	-10.5299
史上最	-10.5306
▁improve	-10.531
地图	-10.531
死去	-10.5315
世上	-10.5316
充满了	-10.5317
ctor	-10.5327
当下	-10.5328
本来	-10.5329
对应	-10.533
回去	-10.5332
我学到	-10.5336
band	-10.5347
不太	-10.5364
这是一个	-10.5366
▁可是	-10.5381
这个过程	-10.5392
等待	-10.5397
说服	-10.5413
还没有	-10.5431
▁Dis	-10.5445
长期	-10.5478
跟我说	-10.5481
national	-10.5492
少数	-10.5493
这个建筑	-10.5497
▁fan	-10.5519
ollo	-10.5522
▁era	-10.5542
件事情	-10.556
有多少	-10.5578
▁topic	-10.565
ange	-10.5652
▁Ric	-10.5665
到这里	-10.5685
做的事	-10.5698
张照片	-10.5704
你不能	-10.5709
首先	-10.571
water	-10.5712
That	-10.5714
32	-10.5773
走过	-10.5843
这并不是	-10.5849
▁hole	-10.588
pple	-10.5899
twentysomethings	-10.5908
lf	-10.5916
▁animal	-10.5953
如果你想	-10.5955
plac	-10.5964
遇	-10.5985
▁cap	-10.6075
lace	-10.6085
▁exact	-10.6133
▁final	-10.6134
▁yea	-10.6135
▁depend	-10.6144
办	-10.6144
念	-10.6145
疑	-10.6145
遭	-10.6146
扫描	-10.6146
习	-10.6147
输	-10.6147
闻	-10.6147
述	-10.6147
严	-10.6148
息	-10.6148
刑	-10.6148
▁happi	-10.6149
诚	-10.6149
▁Egypt	-10.6149
替	-10.6149
响	-10.6149
暗	-10.615
扰	-10.615
铁	-10.615
婆	-10.615
田	-10.615
圆	-10.615
魔兽世界	-10.615
村	-10.615
灰	-10.615
甲	-10.615
#	-10.615
埋	-10.615
填	-10.615
好莱坞	-10.615
截	-10.615
挣	-10.615
蛋白质	-10.615
蠢	-10.615
询	-10.615
踏	-10.615
Livingston	-10.615
▁execut	-10.615
▁voca	-10.615
▁zoom	-10.615
▁举个例子	-10.615
传感器	-10.615
坎	-10.615
寸	-10.615
封	-10.615
悟	-10.615
晶	-10.615
残障人士	-10.615
涂	-10.615
熊	-10.615
铀	-10.615
&	-10.615
CEO	-10.615
izard	-10.615
void	-10.615
▁Afghanistan	-10.615
▁English	-10.615
▁Kenya	-10.615
▁Libya	-10.615
▁Warcraft	-10.615
▁anatomical	-10.615
▁appreciat	-10.615
▁bottle	-10.615
▁challenging	-10.615
▁college	-10.615
▁column	-10.615
▁context	-10.615
▁courage	-10.615
▁department	-10.615
▁disappoint	-10.615
▁increasing	-10.615
▁lucky	-10.615
▁manufactur	-10.615
▁molecul	-10.615
▁neighborhood	-10.615
▁official	-10.615
▁ordinary	-10.615
▁profound	-10.615
▁sample	-10.615
▁sensors	-10.615
▁strength	-10.615
▁tremendous	-10.615
▁uncomfortable	-10.615
▁witness	-10.615
扔	-10.615
抛	-10.615
牛仔裤	-10.615
碎	-10.615
莱	-10.615
诸	-10.615
辛	-10.615
迈克尔	-10.615
那首诗	-10.615
▁layer	-10.615
▁rock	-10.615
▁separat	-10.615
▁silence	-10.615
▁我的意思是	-10.615
习惯	-10.615
促	-10.615
洛	-10.615
与众不同	-10.615
解剖学	-10.615
/	-10.615
▁cloth	-10.615
赫	-10.615
逐渐	-10.615
▁Italian	-10.615
▁fail	-10.615
▁Two	-10.615
折磨	-10.615
以至于	-10.615
▁variet	-10.6151
▁court	-10.6151
▁bank	-10.6151
▁expectations	-10.6151
▁poem	-10.6151
沟通	-10.6151
▁debate	-10.6151
状况	-10.6151
▁reveal	-10.6151
▁solar	-10.6151
▁becoming	-10.6151
磁铁	-10.6151
▁search	-10.6151
▁embrace	-10.6151
广泛	-10.6151
▁poet	-10.6151
轻松	-10.6151
魔术	-10.6151
领袖	-10.6151
附近	-10.6151
运输	-10.6151
▁invest	-10.6151
屋顶	-10.6151
词汇	-10.6151
▁dropped	-10.6151
定律	-10.6152
style	-10.6152
▁photons	-10.6152
文章	-10.6152
▁bright	-10.6152
的样子	-10.6152
获取	-10.6152
食品	-10.6152
照顾	-10.6153
▁shoe	-10.6153
纽约市	-10.6153
▁lose	-10.6153
依然	-10.6153
刚刚	-10.6153
失望	-10.6153
调整	-10.6154
基因组	-10.6154
器官	-10.6154
红色	-10.6154
启动	-10.6154
给予	-10.6154
选举	-10.6154
南部	-10.6155
青年	-10.6155
▁police	-10.6155
体系	-10.6155
花园	-10.6155
▁engineering	-10.6155
主题	-10.6155
▁pink	-10.6156
英国	-10.6156
注入	-10.6157
▁However	-10.6157
设计师	-10.6158
场景	-10.6158
报道	-10.6158
加州	-10.6158
石头	-10.6158
质量	-10.6159
Look	-10.6159
detect	-10.6159
Will	-10.6159
▁DM	-10.6159
▁refer	-10.616
文明	-10.616
原理	-10.6161
没错	-10.6161
▁无论是	-10.6161
引起	-10.6162
水平	-10.6162
不够	-10.6162
精力	-10.6163
小镇	-10.6163
▁resolution	-10.6164
▁Oz	-10.6164
最初	-10.6165
群体	-10.6166
▁everyday	-10.6167
特定	-10.6169
entrepreneurship	-10.6169
▁fine	-10.617
mething	-10.6172
高度	-10.6173
没法	-10.6175
开放	-10.6175
自动	-10.6176
▁Ju	-10.6177
长相	-10.6181
如何看待	-10.6185
来自于	-10.6188
很容易	-10.619
▁scary	-10.6192
▁invention	-10.6196
▁interaction	-10.6197
诗人	-10.6198
度过	-10.6203
OK	-10.6204
所说的	-10.6205
向你们	-10.6209
小女孩	-10.6217
icon	-10.6229
▁sold	-10.6244
▁none	-10.6256
做了一个	-10.6259
网上	-10.6267
找出	-10.6267
▁engine	-10.6309
居住	-10.6313
▁plane	-10.6364
▁vers	-10.6422
▁train	-10.6507
五岁	-10.6512
转变	-10.6574
▁explor	-10.659
是一样的	-10.6662
allow	-10.671
非常感谢	-10.6711
▁不管	-10.6762
信心	-10.6764
同意	-10.6773
是一件	-10.6795
不仅仅	-10.6797
制造出	-10.6843
pose	-10.685
hold	-10.6861
土地	-10.6885
etic	-10.692
数百	-10.6928
家公司	-10.6944
▁street	-10.6952
▁student	-10.6955
误	-10.7029
根本不	-10.7037
我们不得不	-10.7044
▁continu	-10.708
享	-10.7093
▁entrepreneur	-10.713
▁sudden	-10.7133
▁actual	-10.7134
设	-10.7137
双	-10.7141
灵	-10.7144
感谢	-10.7144
毫	-10.7146
▁quest	-10.7146
予	-10.7146
释	-10.7146
虚拟	-10.7147
际	-10.7147
尊	-10.7148
喜	-10.7148
忍	-10.7148
▁mod	-10.7148
▁apart	-10.7148
粉	-10.7148
授	-10.7148
协	-10.7148
顺	-10.7149
抓	-10.7149
▁argu	-10.7149
技	-10.7149
航	-10.7149
束	-10.7149
凯	-10.7149
牌	-10.7149
免	-10.7149
撞	-10.715
舒	-10.715
哥	-10.715
谷	-10.715
彻	-10.715
诉	-10.715
弱	-10.715
继	-10.715
幕	-10.715
夺	-10.715
焦	-10.715
伊	-10.715
股	-10.715
蒙	-10.715
滩	-10.715
柯	-10.715
酶	-10.715
泰	-10.715
珍	-10.715
2007	-10.715
伍	-10.715
党	-10.715
击球率	-10.715
哇	-10.715
外科医生	-10.715
恒	-10.715
敬	-10.715
砖	-10.715
胡	-10.715
马拉拉	-10.715
TEDTalk	-10.715
sumption	-10.715
▁Announcer	-10.715
▁Francisco	-10.715
▁Germany	-10.715
▁Middle	-10.715
▁Patient	-10.715
▁Stuxnet	-10.715
▁Which	-10.715
▁Zambia	-10.715
▁abstract	-10.715
▁agriculture	-10.715
▁awesome	-10.715
▁border	-10.715
▁bottom	-10.715
▁bound	-10.715
▁capacity	-10.715
▁cellphone	-10.715
▁centrifuge	-10.715
▁conflict	-10.715
▁constantly	-10.715
▁contact	-10.715
▁curiosity	-10.715
▁distinct	-10.715
▁economy	-10.715
▁famine	-10.715
▁fascinating	-10.715
▁feedback	-10.715
▁finished	-10.715
▁frustrat	-10.715
▁genome	-10.715
▁gentlem	-10.715
▁grandfather	-10.715
▁intuition	-10.715
▁knife	-10.715
▁laugh	-10.715
▁mechanics	-10.715
▁mechanism	-10.715
▁motivate	-10.715
▁observe	-10.715
▁occur	-10.715
▁platform	-10.715
▁politics	-10.715
▁principle	-10.715
▁purpose	-10.715
▁quiet	-10.715
▁regular	-10.715
▁scholar	-10.715
▁statistic	-10.715
▁teenage	-10.715
▁transition	-10.715
▁valuable	-10.715
▁vast	-10.715
仪	-10.715
熟悉	-10.715
稿	-10.715
这座桥	-10.715
阿波罗	-10.715
Mohamed	-10.715
▁Finally	-10.715
▁Found	-10.715
▁attract	-10.715
▁email	-10.715
▁mouth	-10.715
▁reduce	-10.715
▁village	-10.715
新泽西	-10.715
盛	-10.715
Pivot	-10.715
▁crime	-10.715
▁destroy	-10.715
▁radio	-10.715
▁rapid	-10.715
旧金山	-10.715
湿	-10.715
苏	-10.715
铺	-10.715
饭	-10.715
▁Since	-10.715
▁repeat	-10.715
差不多	-10.715
庄	-10.715
▁biological	-10.715
▁gift	-10.715
不可思议	-10.715
敏	-10.715
潮	-10.715
痕	-10.715
赞比亚	-10.715
降到零	-10.715
▁origin	-10.715
播音员	-10.715
臂	-10.715
左右	-10.715
冲突	-10.715
▁role	-10.715
▁Holmes	-10.715
你不怕	-10.715
循环	-10.715
▁Three	-10.715
欣赏	-10.715
▁Peter	-10.715
个汉字	-10.715
多样性	-10.715
ization	-10.7151
美丽的	-10.7151
顺序	-10.7151
▁novel	-10.7151
营销	-10.7151
▁jail	-10.7151
▁instant	-10.7151
体会到	-10.7151
平衡	-10.7151
指挥	-10.7151
▁soul	-10.7151
环卫	-10.7151
▁trash	-10.7151
▁Anderson	-10.7151
▁sexual	-10.7151
▁gather	-10.7151
发挥	-10.7151
免费	-10.7151
▁alien	-10.7151
很有意思	-10.7151
边缘	-10.7151
选项	-10.7151
旅程	-10.7151
距离	-10.7151
冲击	-10.7151
跳舞	-10.7151
▁clinic	-10.7151
▁Everybody	-10.7151
印象	-10.7151
▁outcome	-10.7151
▁entertainment	-10.7151
律师	-10.7151
▁cancer	-10.7151
Remi	-10.7152
▁north	-10.7152
抓住	-10.7152
▁everywhere	-10.7152
粉色	-10.7152
▁trade	-10.7152
农业	-10.7152
现今	-10.7152
baker	-10.7152
▁loss	-10.7152
森林	-10.7152
▁基于	-10.7152
美妙的	-10.7152
安静	-10.7152
▁尤其是	-10.7153
研发	-10.7153
▁Jason	-10.7153
关联	-10.7153
反射	-10.7153
提升	-10.7153
▁Bru	-10.7153
色彩	-10.7153
条件	-10.7153
创作过程	-10.7153
未知	-10.7153
打印	-10.7154
▁chose	-10.7154
心理学	-10.7154
▁catch	-10.7154
海底	-10.7154
双手	-10.7154
▁majority	-10.7154
数码	-10.7154
公园	-10.7155
效应	-10.7155
市民	-10.7155
字母	-10.7155
表达	-10.7155
▁existence	-10.7155
争论	-10.7155
▁不仅是	-10.7155
难题	-10.7155
▁passionate	-10.7156
图象	-10.7156
罗马	-10.7157
克服	-10.7157
站在这里	-10.7157
▁cows	-10.7157
阿尔	-10.7158
区别	-10.7158
激进	-10.7158
西方	-10.7158
月球	-10.7159
▁prim	-10.7159
ological	-10.7159
▁remark	-10.716
原本	-10.716
加热	-10.716
第二天	-10.716
▁想像	-10.7161
▁reactor	-10.7161
▁realistic	-10.7161
收入	-10.7163
losing	-10.7164
▁Take	-10.7164
飞行	-10.7166
回应	-10.7166
▁labor	-10.7166
成果	-10.7167
公开	-10.7168
130	-10.7169
▁tend	-10.717
一幅	-10.7172
▁press	-10.7173
▁broken	-10.7174
▁grab	-10.7174
必要	-10.7174
▁carrie	-10.7178
加尔	-10.7179
道理	-10.7181
很久	-10.7181
▁handle	-10.7183
同学	-10.7184
▁那时我	-10.7185
对象	-10.7186
最喜欢	-10.7187
不断地	-10.7189
▁virtual	-10.7196
▁dad	-10.7196
将其	-10.7205
可靠	-10.721
Sam	-10.7211
大型	-10.7211
▁professional	-10.7222
▁sons	-10.723
就不会	-10.7248
必须要	-10.7269
术语	-10.7344
些什么	-10.7461
非常简单	-10.7506
BG	-10.7561
rapped	-10.7577
自信	-10.7593
在同一	-10.7646
当人们	-10.7678
▁explore	-10.7744
successfully	-10.7755
效率	-10.7791
▁trap	-10.7807
hand	-10.7842
先进	-10.7854
ograph	-10.7882
base	-10.7889
的道路	-10.7947
▁eye	-10.8064
阳光	-10.8073
万美元	-10.812
犯错	-10.813
每天都	-10.815
nother	-10.8196
▁Of	-10.8196
▁wait	-10.8219
企业家	-10.8221
▁inspire	-10.8232
▁decide	-10.8233
握	-10.8236
校	-10.8242
▁jealous	-10.8245
播	-10.8249
属	-10.8253
赢	-10.8255
旅	-10.8257
征	-10.8258
决	-10.8258
▁sustain	-10.8258
彼	-10.826
固	-10.826
宣	-10.826
蓝	-10.826
汇	-10.826
ologists	-10.826
奋	-10.8261
估	-10.8261
▁optim	-10.8261
▁ju	-10.8261
检	-10.8261
途	-10.8261
串	-10.8261
卷	-10.8261
右	-10.8261
墨	-10.8261
有史以来	-10.8261
佳	-10.8261
猫	-10.8261
肠	-10.8261
量子力学	-10.8261
itude	-10.8261
厚	-10.8261
址	-10.8261
寄	-10.8261
饱	-10.8261
Seadragon	-10.8261
审	-10.8261
捞	-10.8261
离心机	-10.8261
筹	-10.8261
姆	-10.8261
时间跨度	-10.8261
腹	-10.8261
被告知	-10.8261
达尔文	-10.8261
骑	-10.8261
Twitter	-10.8261
▁industrial	-10.8261
▁liquid	-10.8261
▁priva	-10.8261
塔利班	-10.8261
奶	-10.8261
旦	-10.8261
泽	-10.8261
渐渐	-10.8261
煤	-10.8261
缓	-10.8261
萤火虫	-10.8261
誉	-10.8261
辨	-10.8261
Facebook	-10.8261
conduct	-10.8261
rofessor	-10.8261
transparency	-10.8261
▁Honduras	-10.8261
▁Itjtawy	-10.8261
▁London	-10.8261
▁Second	-10.8261
▁associat	-10.8261
▁bedroom	-10.8261
▁belief	-10.8261
▁blah	-10.8261
▁cognitive	-10.8261
▁collaborati	-10.8261
▁confront	-10.8261
▁correct	-10.8261
▁correlation	-10.8261
▁criminal	-10.8261
▁destruction	-10.8261
▁diagnos	-10.8261
▁drug	-10.8261
▁easier	-10.8261
▁electronics	-10.8261
▁empty	-10.8261
▁expand	-10.8261
▁explosion	-10.8261
▁fantastic	-10.8261
▁feminine	-10.8261
▁flavor	-10.8261
▁folks	-10.8261
▁horizon	-10.8261
▁horrible	-10.8261
▁integrate	-10.8261
▁interview	-10.8261
▁journalist	-10.8261
▁knock	-10.8261
▁mix	-10.8261
▁newspaper	-10.8261
▁organization	-10.8261
▁phrase	-10.8261
▁physician	-10.8261
▁pocket	-10.8261
▁poison	-10.8261
▁rebuild	-10.8261
▁retouch	-10.8261
▁roof	-10.8261
▁shopping	-10.8261
▁square	-10.8261
▁stupid	-10.8261
▁underneath	-10.8261
▁universal	-10.8261
▁vote	-10.8261
▁wisdom	-10.8261
一无所知	-10.8261
卵	-10.8261
扎	-10.8261
杜	-10.8261
泥	-10.8261
煤炭	-10.8261
砸	-10.8261
硬	-10.8261
绿野仙踪	-10.8261
谎	-10.8261
跃	-10.8261
酸	-10.8261
震网病毒	-10.8261
青少年	-10.8261
DigiNotar	-10.8261
▁collaps	-10.8261
▁desire	-10.8261
▁instruct	-10.8261
▁pilot	-10.8261
▁surround	-10.8261
▁threaten	-10.8261
▁traffic	-10.8261
▁ugly	-10.8261
冻	-10.8261
厨	-10.8261
哭	-10.8261
基因编码	-10.8261
孔	-10.8261
挖	-10.8261
沃	-10.8261
浅	-10.8261
福尔摩斯	-10.8261
藤	-10.8261
▁John	-10.8261
▁document	-10.8261
▁nurse	-10.8261
▁sensing	-10.8261
▁sleep	-10.8261
瓦	-10.8261
肩	-10.8261
▁balance	-10.8261
▁marry	-10.8261
▁members	-10.8261
卡扎菲	-10.8261
捷	-10.8261
灌输	-10.8261
的形状	-10.8261
目睹	-10.8261
脉	-10.8261
迈	-10.8261
这个头衔	-10.8261
瑟	-10.8261
袭击	-10.8262
叶	-10.8262
柱	-10.8262
讨厌	-10.8262
这座城市	-10.8262
▁Sometimes	-10.8262
▁price	-10.8262
烟	-10.8262
癌症	-10.8262
▁steel	-10.8262
有机体	-10.8262
古老的	-10.8262
呼吁	-10.8262
▁demand	-10.8262
扭曲	-10.8262
▁facilit	-10.8262
那一刻	-10.8262
剥夺	-10.8262
▁Good	-10.8262
▁skills	-10.8262
▁smell	-10.8262
焦虑	-10.8262
渴望	-10.8262
突破	-10.8262
回忆	-10.8262
▁rational	-10.8262
监狱	-10.8262
轮椅	-10.8262
鼓舞	-10.8262
Allah	-10.8262
需求	-10.8262
▁假如	-10.8262
皮肤	-10.8262
依赖	-10.8262
覆盖	-10.8262
休息	-10.8262
▁double	-10.8262
▁tired	-10.8262
▁heav	-10.8262
价格	-10.8262
元素	-10.8262
探险	-10.8262
血液	-10.8262
▁suppl	-10.8262
结尾	-10.8262
象征	-10.8262
损害	-10.8262
杰森	-10.8262
感染	-10.8262
伴随着	-10.8262
干净	-10.8262
关于意识的	-10.8263
▁international	-10.8263
犯罪	-10.8263
政客	-10.8263
标志	-10.8263
包容	-10.8263
哪怕	-10.8263
▁1,000	-10.8263
▁division	-10.8263
鸟类	-10.8263
▁distance	-10.8263
缺陷	-10.8263
精彩	-10.8263
诚实	-10.8263
协作	-10.8263
紧急	-10.8264
坦白	-10.8264
精确	-10.8264
▁jar	-10.8264
▁replace	-10.8264
角落	-10.8264
确保	-10.8264
消除	-10.8264
整整	-10.8264
▁crack	-10.8264
▁camp	-10.8265
解决方案	-10.8265
剂量	-10.8265
怎么办	-10.8265
开启	-10.8265
形象	-10.8266
维护	-10.8266
心灵	-10.8266
站起来	-10.8266
民众	-10.8266
美食	-10.8266
遭遇	-10.8267
超越	-10.8267
▁cast	-10.8267
展开	-10.8267
部落	-10.8268
Should	-10.8268
所拥有的	-10.8268
法官	-10.8268
差别	-10.8268
舞者	-10.8268
▁insight	-10.8269
微生物	-10.8269
打破	-10.8269
生态	-10.827
团体	-10.827
分支	-10.827
▁fair	-10.827
引入	-10.8271
几周	-10.8272
▁tight	-10.8273
网络游戏	-10.8273
▁appli	-10.8273
hief	-10.8273
惊奇	-10.8274
上帝	-10.8274
区分	-10.8274
▁construction	-10.8274
同情	-10.8275
爱情	-10.8275
下一代	-10.8275
打算	-10.8276
机制	-10.8276
解放	-10.8276
深深	-10.8276
给你们看	-10.8278
相当于	-10.8278
出柜	-10.8279
记者	-10.8279
权力	-10.828
该如何	-10.8282
▁chart	-10.8283
▁cold	-10.8283
tail	-10.8285
动作	-10.8286
小时候	-10.8287
意见	-10.8293
作为一名	-10.8293
那段	-10.8297
▁bull	-10.8299
就意味着	-10.8308
gged	-10.8317
▁astonishing	-10.8329
做些什么	-10.8333
所需	-10.834
▁battle	-10.8342
▁mini	-10.8348
感受到	-10.8416
我的女儿	-10.8425
nding	-10.8454
▁tackle	-10.847
发生了什么	-10.8528
▁propos	-10.8547
▁struggle	-10.8637
Come	-10.8641
跳过	-10.8653
▁classic	-10.8728
▁Wh	-10.8829
亿美元	-10.8857
星球	-10.8928
etc	-10.8956
trained	-10.8981
town	-10.9067
American	-10.9068
scale	-10.9068
down	-10.9075
构建	-10.9213
cording	-10.9214
Sun	-10.923
▁recognize	-10.9254
平等	-10.929
▁option	-10.9314
tune	-10.937
▁broke	-10.9483
镇	-10.9493
▁assign	-10.9509
踪	-10.9509
▁commit	-10.9509
亡	-10.9509
务	-10.951
续	-10.951
跨	-10.951
忙	-10.951
净	-10.951
距	-10.951
闭	-10.951
谓	-10.9511
袖	-10.9511
摇	-10.9511
妈	-10.9511
描	-10.9511
金属	-10.9511
斗	-10.9511
折	-10.9511
麻	-10.9511
仙	-10.9511
裁	-10.9511
ealousy	-10.9511
噢	-10.9511
布莱恩	-10.9511
弗	-10.9511
销售	-10.9511
骚	-10.9511
叠	-10.9511
挽	-10.9511
泳	-10.9511
疏	-10.9511
省	-10.9511
羞愧	-10.9511
返	-10.9511
颠	-10.9511
=	-10.9511
Lydia	-10.9511
Windows	-10.9511
僵	-10.9511
办公室	-10.9511
抵	-10.9511
敌	-10.9511
柏	-10.9511
民意调查	-10.9511
皆	-10.9511
自行车	-10.9511
轨	-10.9511
香	-10.9511
鸡	-10.9511
▁accomplish	-10.9511
▁afford	-10.9511
▁androgen	-10.9511
▁entitle	-10.9511
▁occasion	-10.9511
▁swim	-10.9511
安德森	-10.9511
宽	-10.9511
希腊	-10.9511
忧	-10.9511
扩	-10.9511
扮	-10.9511
歧	-10.9511
矛	-10.9511
选美大赛	-10.9511
面包师	-10.9511
饰	-10.9511
Simonides	-10.9511
Women	-10.9511
▁Darwin	-10.9511
▁Harvard	-10.9511
▁Malala	-10.9511
▁Taliban	-10.9511
▁activities	-10.9511
▁adjust	-10.9511
▁asphalt	-10.9511
▁attending	-10.9511
▁awkward	-10.9511
▁brief	-10.9511
▁brilliant	-10.9511
▁confidence	-10.9511
▁convinc	-10.9511
▁deserve	-10.9511
▁disappear	-10.9511
▁dynamic	-10.9511
▁employee	-10.9511
▁engaged	-10.9511
▁enormous	-10.9511
▁ethnosphere	-10.9511
▁evolve	-10.9511
▁exhaust	-10.9511
▁express	-10.9511
▁extinct	-10.9511
▁familiar	-10.9511
▁fortunate	-10.9511
▁hidden	-10.9511
▁illegal	-10.9511
▁launch	-10.9511
▁location	-10.9511
▁narrative	-10.9511
▁opportunities	-10.9511
▁opposite	-10.9511
▁penalty	-10.9511
▁perceive	-10.9511
▁privilege	-10.9511
▁quote	-10.9511
▁resident	-10.9511
▁return	-10.9511
▁shovel	-10.9511
▁spatial	-10.9511
▁temperature	-10.9511
▁terrorism	-10.9511
▁trustworthiness	-10.9511
▁unexpected	-10.9511
▁virtuoso	-10.9511
介	-10.9511
册	-10.9511
劲	-10.9511
参议院	-10.9511
可持续性	-10.9511
壤	-10.9511
小儿麻痹症	-10.9511
慈	-10.9511
摩托车	-10.9511
杯	-10.9511
滑	-10.9511
逻辑	-10.9511
阿凡达	-10.9511
▁branch	-10.9511
▁exposed	-10.9511
▁femto	-10.9511
▁infect	-10.9511
▁legacy	-10.9511
▁manipulat	-10.9511
▁ripples	-10.9511
亦	-10.9511
添	-10.9511
滥	-10.9511
爸爸	-10.9511
疲	-10.9511
胸	-10.9511
铲	-10.9511
麻疹	-10.9511
Stasi	-10.9511
▁Spain	-10.9511
▁further	-10.9511
▁husband	-10.9511
▁prevent	-10.9511
亨	-10.9511
喊	-10.9511
奖励	-10.9511
岸	-10.9511
淹	-10.9511
裙	-10.9511
▁tragic	-10.9511
▁wreck	-10.9511
伊其塔维	-10.9511
佩	-10.9511
凭	-10.9511
扇	-10.9511
蛋	-10.9511
▁Senate	-10.9511
▁critical	-10.9511
▁snow	-10.9511
▁克里斯	-10.9511
脑海中	-10.9511
的态度	-10.9512
▁contain	-10.9512
▁orient	-10.9512
模拟	-10.9512
人工智能	-10.9512
伊朗	-10.9512
MIT	-10.9512
▁remain	-10.9512
唱	-10.9512
不停地	-10.9512
账户	-10.9512
兄弟	-10.9512
油滴	-10.9512
竟然	-10.9512
▁analog	-10.9512
炸弹	-10.9512
环卫工人	-10.9512
▁Turn	-10.9512
▁proud	-10.9512
▁below	-10.9512
伙伴	-10.9512
▁safety	-10.9512
荷兰	-10.9512
▁indicat	-10.9512
▁lawyer	-10.9512
immer	-10.9512
尊严	-10.9512
阵营	-10.9512
像我一样	-10.9512
燃烧	-10.9512
Bryan	-10.9512
只不过	-10.9512
▁shoot	-10.9512
▁outfit	-10.9512
▁imaging	-10.9512
设施	-10.9512
▁pure	-10.9512
负鼠	-10.9512
困扰	-10.9512
英雄	-10.9512
盯着	-10.9512
估计	-10.9512
▁Brit	-10.9512
▁lift	-10.9512
微软	-10.9512
的核心	-10.9512
成年人	-10.9512
舒适	-10.9512
震动	-10.9512
关闭	-10.9512
种族圈	-10.9512
举办	-10.9513
浪费	-10.9513
网页	-10.9513
麦克	-10.9513
辩护	-10.9513
帮忙	-10.9513
强壮	-10.9513
搭建	-10.9513
跨越	-10.9513
金属片	-10.9513
▁dying	-10.9513
替代	-10.9513
赞助	-10.9513
▁Also	-10.9513
转化成	-10.9513
国王	-10.9513
generate	-10.9513
▁hack	-10.9513
另一端	-10.9513
宣传	-10.9513
法庭	-10.9513
灾难	-10.9513
游客	-10.9513
顺利	-10.9514
stairs	-10.9514
生态系统	-10.9514
反映	-10.9514
舞台	-10.9514
现有的	-10.9514
界限	-10.9514
设定	-10.9514
▁indeed	-10.9514
▁settle	-10.9514
喜爱	-10.9514
世界各地	-10.9514
商店	-10.9515
释放	-10.9515
▁argument	-10.9515
之间的关系	-10.9515
立刻	-10.9515
▁Italy	-10.9515
▁investment	-10.9515
证书	-10.9515
文件	-10.9516
英语	-10.9516
虚拟世界	-10.9516
旁边	-10.9516
▁painful	-10.9516
存活	-10.9516
▁flash	-10.9516
群落	-10.9516
法院	-10.9516
异常	-10.9516
黑色	-10.9516
激情	-10.9516
指令	-10.9517
▁nei	-10.9517
情节	-10.9517
教导	-10.9517
疑问	-10.9517
谈谈	-10.9517
弹头	-10.9517
古代	-10.9517
平台	-10.9517
▁100,000	-10.9517
更大的	-10.9517
指导	-10.9517
▁personality	-10.9518
双性	-10.9518
充分	-10.9518
主导	-10.9518
▁complexity	-10.9518
样品	-10.9518
表情	-10.9519
▁initial	-10.952
▁2,000	-10.952
街道	-10.952
公众	-10.952
▁practi	-10.952
来看一下	-10.952
进一步	-10.952
▁massive	-10.9521
▁tall	-10.9521
交谈	-10.9521
灯光	-10.9521
在座的	-10.9522
联系起来	-10.9522
▁March	-10.9522
特效	-10.9522
聊天	-10.9522
分配	-10.9522
足以	-10.9523
两周	-10.9525
太空	-10.9525
我带了	-10.9527
etal	-10.9536
▁discussion	-10.9536
把握	-10.954
▁melt	-10.9542
▁boo	-10.9545
是非常重要的	-10.9552
这种观点	-10.9554
诊所	-10.9564
是世界上最	-10.9607
combination	-10.969
▁mindful	-10.9773
▁financi	-10.9789
▁epi	-10.9803
项	-10.9865
认真	-10.9895
但其实	-10.9998
不管是	-11.003
Art	-11.0412
▁describ	-11.0415
bringing	-11.0498
V	-11.0501
called	-11.0503
This	-11.0504
second	-11.0508
level	-11.0614
资金	-11.074
▁pixel	-11.0743
钟	-11.0757
作业	-11.0776
够	-11.0836
需	-11.085
ough	-11.0886
▁technolog	-11.0921
▁construct	-11.0923
帝	-11.0924
▁innovat	-11.0927
二十几岁	-11.0934
Hey	-11.0936
研	-11.0936
驱	-11.0937
灾	-11.0938
▁slave	-11.0938
王	-11.0938
况	-11.0938
环	-11.0938
鸟	-11.0938
武	-11.0939
楚	-11.0939
▁favor	-11.0939
域	-11.0939
鼓	-11.0939
疯	-11.0939
希	-11.094
覆	-11.094
狱	-11.094
阶	-11.094
范	-11.094
椅	-11.094
肤	-11.094
艺	-11.094
遍	-11.094
饥	-11.094
兄	-11.094
冒	-11.094
鞋	-11.094
循	-11.094
骗	-11.094
欺	-11.094
疫	-11.094
苗	-11.094
抬	-11.094
兼	-11.094
瑞	-11.094
侣	-11.094
唐阁下	-11.094
粘	-11.094
耐	-11.094
驶	-11.094
高速公路	-11.094
丑	-11.094
俗	-11.094
嘴	-11.094
恐怖主义	-11.094
悔	-11.094
挤	-11.094
档	-11.094
淡	-11.094
渠	-11.094
灰盒子	-11.094
的基础上	-11.094
糊	-11.094
纯	-11.094
至关重要	-11.094
虫	-11.094
违	-11.094
钻	-11.094
高跟鞋	-11.094
Avatar	-11.094
傲	-11.094
勤	-11.094
尚	-11.094
幸存者	-11.094
恋	-11.094
栏	-11.094
炎	-11.094
稀	-11.094
腾	-11.094
赌	-11.094
逾	-11.094
Footscray	-11.094
Please	-11.094
Titanic	-11.094
distinguish	-11.094
identify	-11.094
relevant	-11.094
script	-11.094
tadium	-11.094
▁Actually	-11.094
▁Fathers	-11.094
▁Gaddafi	-11.094
▁Glass	-11.094
▁Greek	-11.094
▁Institute	-11.094
▁January	-11.094
▁Peace	-11.094
▁Scott	-11.094
▁Street	-11.094
▁Tibet	-11.094
▁abilities	-11.094
▁acknowledg	-11.094
▁adventure	-11.094
▁ancestor	-11.094
▁attempt	-11.094
▁bathroom	-11.094
▁blind	-11.094
▁burden	-11.094
▁campaign	-11.094
▁comfortable	-11.094
▁conclusion	-11.094
▁constraint	-11.094
▁definit	-11.094
▁divine	-11.094
▁ecological	-11.094
▁envelope	-11.094
▁establish	-11.094
▁explanation	-11.094
▁exponential	-11.094
▁inherent	-11.094
▁library	-11.094
▁magnetic	-11.094
▁measles	-11.094
▁mysterious	-11.094
▁panpsychis	-11.094
▁patriarch	-11.094
▁pendulum	-11.094
▁pleasure	-11.094
▁prototype	-11.094
▁quality	-11.094
▁recipe	-11.094
▁released	-11.094
▁remote	-11.094
▁restaurant	-11.094
▁sanitation	-11.094
▁satisfaction	-11.094
▁selves	-11.094
▁shadow	-11.094
▁shaft	-11.094
▁spark	-11.094
▁succeed	-11.094
▁survey	-11.094
▁talent	-11.094
▁uniform	-11.094
▁uranium	-11.094
▁vehicle	-11.094
▁volume	-11.094
▁waithood	-11.094
▁warhead	-11.094
▁website	-11.094
一百万倍	-11.094
全球变暖	-11.094
凑	-11.094
大使馆	-11.094
某种意义上	-11.094
甘	-11.094
盟	-11.094
租	-11.094
纵	-11.094
胶	-11.094
芬	-11.094
裔	-11.094
透明化	-11.094
阿曼达	-11.094
难以置信	-11.094
鼻	-11.094
▁Architect	-11.094
▁Virginia	-11.094
▁climb	-11.094
▁decline	-11.094
▁herself	-11.094
▁inject	-11.094
▁joy	-11.094
▁sophisticat	-11.094
▁staff	-11.094
▁tempo	-11.094
▁trillion	-11.094
▁universit	-11.094
▁urgent	-11.094
措施	-11.094
棋	-11.094
等待成年期	-11.094
辅	-11.094
邦	-11.094
铝	-11.094
iPhone	-11.094
▁basis	-11.094
▁captain	-11.094
▁defend	-11.094
▁laser	-11.094
▁motor	-11.094
▁properly	-11.094
▁suspect	-11.094
▁worldwide	-11.094
侧	-11.094
围绕着	-11.094
岛	-11.094
我的主治	-11.094
晃	-11.094
歇	-11.094
浴	-11.094
猛	-11.094
睾丸	-11.094
肢	-11.094
谱	-11.094
貌	-11.094
1984	-11.094
▁bounc	-11.094
▁cousin	-11.094
▁recall	-11.094
▁shame	-11.094
催	-11.094
奈	-11.094
春	-11.094
磅	-11.094
鉴	-11.094
▁Yet	-11.094
▁addition	-11.094
▁filter	-11.094
援	-11.094
熬	-11.094
▁distort	-11.094
发展中国家	-11.094
舞蹈	-11.094
衰	-11.094
▁excited	-11.094
▁mono	-11.094
瘦	-11.094
记忆大赛	-11.094
▁drill	-11.094
▁operator	-11.094
▁intersex	-11.094
▁meaningful	-11.094
畏惧	-11.094
▁Talk	-11.094
▁overcome	-11.094
▁uncle	-11.094
士兵	-11.094
污染	-11.094
这部视频	-11.094
▁horse	-11.094
一辈子	-11.094
▁attitude	-11.094
▁extend	-11.094
▁trial	-11.094
▁adopt	-11.094
挚	-11.094
▁现如今	-11.094
▁civilization	-11.094
欺骗	-11.094
贫困	-11.094
▁Henry	-11.094
拥抱	-11.094
翻译	-11.094
重点是	-11.094
▁protest	-11.094
▁unfortunately	-11.094
搜索	-11.094
▁barrel	-11.094
操控	-11.094
约翰	-11.094
走廊	-11.094
▁guide	-11.094
昂贵	-11.094
▁savings	-11.094
链接	-11.094
掌握	-11.094
哥哥	-11.094
途径	-11.094
▁East	-11.094
▁kilo	-11.094
仿佛	-11.094
▁psychological	-11.0941
▁Gam	-11.0941
▁forgot	-11.0941
▁hired	-11.0941
▁sports	-11.0941
▁skeptic	-11.0941
摇摆	-11.0941
粉丝	-11.0941
▁winning	-11.0941
想一想	-11.0941
▁zone	-11.0941
房屋	-11.0941
frame	-11.0941
尸体	-11.0941
爆发	-11.0941
▁optimism	-11.0941
▁master	-11.0941
纸笔	-11.0941
始终	-11.0941
变革	-11.0941
▁float	-11.0941
撞击	-11.0941
rench	-11.0941
▁rising	-11.0941
▁很显然	-11.0941
实在是	-11.0941
赚钱	-11.0941
我想说的是	-11.0941
基本定律	-11.0941
与他人	-11.0941
武器	-11.0942
刺激	-11.0942
▁tilt	-11.0942
十几岁	-11.0942
戈尔	-11.0942
▁lack	-11.0942
注射	-11.0942
坚守	-11.0942
航空	-11.0942
▁curious	-11.0942
残酷	-11.0942
能源价格	-11.0942
shirt	-11.0942
之类的	-11.0942
▁bow	-11.0942
固定	-11.0942
西藏	-11.0942
信念	-11.0943
局限	-11.0943
▁这才是	-11.0943
▁lake	-11.0943
▁TV	-11.0943
古埃及	-11.0943
对我而言	-11.0943
导演	-11.0943
驱动	-11.0943
形态	-11.0943
▁trib	-11.0943
气候变化	-11.0943
农民	-11.0943
跟踪	-11.0943
2.5	-11.0943
GO	-11.0943
▁heels	-11.0943
▁assignment	-11.0943
▁committed	-11.0943
景象	-11.0943
抗议	-11.0943
排列	-11.0943
▁viral	-11.0943
既然	-11.0943
疯狂想法	-11.0943
创立	-11.0943
统治	-11.0944
移民	-11.0944
▁Dam	-11.0944
绿色	-11.0944
在游戏中	-11.0944
的后果	-11.0944
▁coast	-11.0944
▁tele	-11.0944
标记	-11.0944
▁atom	-11.0946
▁Step	-11.0946
大脑扫描	-11.0947
gency	-11.0948
▁dam	-11.0948
▁actuat	-11.0949
▁Iran	-11.0949
我最喜欢的	-11.0951
了不起的	-11.0951
ywhere	-11.0952
rupt	-11.0953
Sure	-11.0955
conceiv	-11.0956
ancy	-11.0958
▁Stan	-11.0973
分之一的	-11.0999
所需要的	-11.1002
是不可能的	-11.1006
▁sala	-11.1069
▁正因	-11.1169
常规的	-11.1324
保存	-11.1375
graphic	-11.1393
holes	-11.1438
▁stream	-11.1789
[	-11.2164
week	-11.2166
Why	-11.2167
world	-11.2171
what	-11.2172
▁simpl	-11.2191
▁scientist	-11.2409
▁technique	-11.241
▁State	-11.2413
庭	-11.2455
improv	-11.2465
诊	-11.2535
▁discuss	-11.2574
▁involve	-11.2577
青	-11.2598
互	-11.2599
▁inform	-11.2604
ellow	-11.2604
池	-11.2605
稳	-11.2605
序	-11.2605
壮	-11.2605
麦	-11.2605
染	-11.2605
赚	-11.2605
▁electric	-11.2605
尾	-11.2605
纽	-11.2606
织	-11.2606
雄	-11.2606
鼠	-11.2606
攻	-11.2606
雅	-11.2606
赖	-11.2606
浸	-11.2606
仿	-11.2606
捉	-11.2606
销	-11.2606
昂	-11.2606
策	-11.2606
漠	-11.2606
阵	-11.2606
搜	-11.2606
憎	-11.2606
烦	-11.2606
磨	-11.2606
赏	-11.2607
修图师	-11.2607
肾	-11.2607
这股力量	-11.2607
氛	-11.2607
脆弱	-11.2607
辈	-11.2607
陪	-11.2607
刀	-11.2607
届	-11.2607
愈	-11.2607
犬	-11.2607
嫁	-11.2607
抚	-11.2607
施虐者	-11.2607
粗	-11.2607
辑	-11.2607
乏	-11.2607
取决于	-11.2607
慰	-11.2607
挡	-11.2607
昨	-11.2607
柔	-11.2607
硅	-11.2607
腺	-11.2607
臭	-11.2607
艾滋病	-11.2607
贯	-11.2607
去氧核糖核酸	-11.2607
县	-11.2607
唤	-11.2607
帕金森	-11.2607
招	-11.2607
辐	-11.2607
Flickr	-11.2607
Maysoon	-11.2607
▁metaphor	-11.2607
儒	-11.2607
兽	-11.2607
凶	-11.2607
发达国家	-11.2607
喀	-11.2607
夹	-11.2607
宁	-11.2607
寿	-11.2607
希罗多德	-11.2607
御	-11.2607
悄悄	-11.2607
拔	-11.2607
水泥砖	-11.2607
清洁煤炭	-11.2607
狭	-11.2607
电讯公司	-11.2607
肃	-11.2607
膝	-11.2607
醉	-11.2607
饮用水	-11.2607
齐	-11.2607
+	-11.2607
2004	-11.2607
Atlantic	-11.2607
continent	-11.2607
determination	-11.2607
intuitive	-11.2607
ivalent	-11.2607
violent	-11.2607
wiki	-11.2607
▁Boston	-11.2607
▁Canadian	-11.2607
▁Central	-11.2607
▁Christmas	-11.2607
▁George	-11.2607
▁Herodotus	-11.2607
▁Kingdom	-11.2607
▁Lestrade	-11.2607
▁Little	-11.2607
▁Microsoft	-11.2607
▁Seattle	-11.2607
▁Swann	-11.2607
▁Voodoo	-11.2607
▁Wikipedia	-11.2607
▁abundance	-11.2607
▁abundant	-11.2607
▁accident	-11.2607
▁advertising	-11.2607
▁aluminum	-11.2607
▁animation	-11.2607
▁artificial	-11.2607
▁attentive	-11.2607
▁bizarre	-11.2607
▁blame	-11.2607
▁boyfriend	-11.2607
▁budget	-11.2607
▁centuries	-11.2607
▁chicken	-11.2607
▁colonoscop	-11.2607
▁compassion	-11.2607
▁competitive	-11.2607
▁concerned	-11.2607
▁confused	-11.2607
▁custom	-11.2607
▁depression	-11.2607
▁desperately	-11.2607
▁determine	-11.2607
▁dirty	-11.2607
▁disorder	-11.2607
▁elevator	-11.2607
▁eliminate	-11.2607
▁embassy	-11.2607
▁empowered	-11.2607
▁engaging	-11.2607
▁enrich	-11.2607
▁epiphany	-11.2607
▁escape	-11.2607
▁exercise	-11.2607
▁fault	-11.2607
▁graffiti	-11.2607
▁guilt	-11.2607
▁illusion	-11.2607
▁immediately	-11.2607
▁influence	-11.2607
▁loving	-11.2607
▁mercy	-11.2607
▁motivation	-11.2607
▁nervous	-11.2607
▁paralysis	-11.2607
▁pencil	-11.2607
▁physics	-11.2607
▁possibly	-11.2607
▁president	-11.2607
▁quarter	-11.2607
▁recognition	-11.2607
▁reconciliation	-11.2607
▁simul	-11.2607
▁sponsor	-11.2607
▁supercomputer	-11.2607
▁surprising	-11.2607
▁sweet	-11.2607
▁switch	-11.2607
▁throat	-11.2607
▁transportation	-11.2607
▁uncertainty	-11.2607
▁whatsoever	-11.2607
之处在于	-11.2607
伐	-11.2607
值得信赖的	-11.2607
倾斜	-11.2607
出人意料	-11.2607
同义词词典	-11.2607
小提琴	-11.2607
悦	-11.2607
撒	-11.2607
械	-11.2607
氧	-11.2607
爬	-11.2607
珠	-11.2607
穆	-11.2607
第二天早上	-11.2607
致力于	-11.2607
西雅图	-11.2607
诀	-11.2607
郊	-11.2607
闷	-11.2607
ATLAS	-11.2607
▁Canada	-11.2607
▁Russia	-11.2607
▁contemplat	-11.2607
▁correspond	-11.2607
▁deploy	-11.2607
▁exceptional	-11.2607
▁faith	-11.2607
▁fruit	-11.2607
▁globe	-11.2607
▁insurance	-11.2607
▁organs	-11.2607
▁permanent	-11.2607
▁previous	-11.2607
▁reject	-11.2607
俄罗斯	-11.2607
发电厂	-11.2607
大西洋	-11.2607
夸	-11.2607
巫毒教	-11.2607
悠	-11.2607
最聪明的	-11.2607
消防栓	-11.2607
漆	-11.2607
琳	-11.2607
贸	-11.2607
跌	-11.2607
金门大桥	-11.2607
DIY	-11.2607
▁Black	-11.2607
▁Kofi	-11.2607
▁Play	-11.2607
▁Roman	-11.2607
▁ballet	-11.2607
▁contrast	-11.2607
▁current	-11.2607
▁dignity	-11.2607
▁mystery	-11.2607
▁precise	-11.2607
▁refuse	-11.2607
▁shatter	-11.2607
▁trend	-11.2607
▁workshop	-11.2607
基恩大夫	-11.2607
巫	-11.2607
脑海里	-11.2607
雷斯垂德	-11.2607
1995	-11.2607
Cameron	-11.2607
▁Prize	-11.2607
励志	-11.2607
扬	-11.2607
棚	-11.2607
胎	-11.2607
菲	-11.2607
逊	-11.2607
arctic	-11.2607
▁phase	-11.2607
嘛	-11.2607
太棒了	-11.2607
这把刀	-11.2607
▁worrie	-11.2607
帕	-11.2607
勒	-11.2607
完整的	-11.2607
在日常生活中	-11.2607
大街上	-11.2607
scope	-11.2607
▁singular	-11.2607
▁slightly	-11.2607
嘲笑	-11.2607
想像力	-11.2607
憎恨	-11.2607
▁raising	-11.2607
▁route	-11.2607
▁flip	-11.2607
▁Row	-11.2607
Gmail	-11.2607
▁pursu	-11.2607
▁wedding	-11.2607
▁Four	-11.2607
located	-11.2607
早晨	-11.2607
排放量约	-11.2607
祷	-11.2607
▁sweat	-11.2607
♪♫	-11.2607
这个星球上	-11.2607
▁Ohio	-11.2607
▁false	-11.2607
▁east	-11.2607
▁weapon	-11.2607
▁sharing	-11.2607
原始的	-11.2607
肌肉	-11.2607
双鞋	-11.2607
探讨	-11.2607
我们怎么才能	-11.2607
▁Latin	-11.2607
墙壁	-11.2607
奋斗	-11.2607
▁behave	-11.2607
乔治	-11.2607
女权主义	-11.2607
是很重要的	-11.2607
沙漠	-11.2607
改革	-11.2607
▁cafe	-11.2607
minate	-11.2607
▁sky	-11.2607
▁attach	-11.2607
虚弱	-11.2607
延续	-11.2607
▁fertil	-11.2607
▁sorry	-11.2607
钟摆	-11.2607
沉浸	-11.2607
序列	-11.2607
lastic	-11.2607
▁warming	-11.2607
的勇气	-11.2607
优雅	-11.2607
涉及	-11.2607
看上去	-11.2607
触摸	-11.2607
著名的	-11.2607
▁steal	-11.2607
liberat	-11.2607
▁retire	-11.2607
▁hype	-11.2608
▁boring	-11.2608
▁visit	-11.2608
▁tax	-11.2608
▁income	-11.2608
▁solid	-11.2608
▁bass	-11.2608
▁resist	-11.2608
▁想象一下	-11.2608
启迪	-11.2608
▁comic	-11.2608
▁prize	-11.2608
▁hurt	-11.2608
▁polls	-11.2608
Rome	-11.2608
▁freak	-11.2608
▁humbl	-11.2608
很强的	-11.2609
▁ethic	-11.2609
那你就	-11.2609
▁assume	-11.2609
▁Where	-11.261
scend	-11.261
收集到的	-11.2613
spring	-11.2614
▁peer	-11.2614
会发生什么	-11.2614
▁Tru	-11.2621
Star	-11.2621
▁Walt	-11.263
种程度上	-11.2631
dimensional	-11.264
chem	-11.2681
ipping	-11.2698
▁Medi	-11.2733
ippe	-11.2797
eau	-11.3202
petition	-11.3244
pelling	-11.3292
blank	-11.3417
rator	-11.3592
reaching	-11.3988
▁divide	-11.4033
▁mobil	-11.4107
source	-11.4157
Every	-11.4162
health	-11.4165
▁tackl	-11.4226
▁virtu	-11.4512
▁clip	-11.4535
spiration	-11.454
▁whi	-11.4552
候	-11.4556
profit	-11.4565
hanging	-11.4578
孩	-11.4583
概	-11.4596
夏	-11.4603
媒	-11.4603
戈	-11.4604
危	-11.4604
操	-11.4605
entially	-11.4605
▁danger	-11.4605
软	-11.4605
缘	-11.4605
虽	-11.4605
▁vaca	-11.4605
燃	-11.4606
▁dispos	-11.4606
mbrace	-11.4606
逆	-11.4606
umber	-11.4606
涉	-11.4606
菌	-11.4606
nfortunately	-11.4606
巧	-11.4606
屏	-11.4606
▁civil	-11.4606
剥	-11.4607
弟	-11.4607
污	-11.4607
维基百科	-11.4607
欣	-11.4607
扫	-11.4607
‘	-11.4607
猎	-11.4607
白色药片	-11.4607
辱	-11.4607
加利福尼亚	-11.4607
挂	-11.4607
烹	-11.4607
鸣	-11.4607
逝	-11.4607
另一只手	-11.4607
吹	-11.4607
培训	-11.4607
曼哈顿	-11.4607
棕	-11.4607
申	-11.4607
胖	-11.4607
阿姆斯特朗	-11.4607
Superstruct	-11.4607
贩	-11.4607
snollygoster	-11.4607
坑	-11.4607
感应电机	-11.4607
挫	-11.4607
疼	-11.4607
隆	-11.4607
颤	-11.4607
饼	-11.4607
▁Michael	-11.4607
▁automat	-11.4607
▁与此同时	-11.4607
佣	-11.4607
倾向于	-11.4607
兆	-11.4607
几十亿年	-11.4607
卢	-11.4607
囚	-11.4607
奥克塔维奥	-11.4607
崇	-11.4607
愉	-11.4607
戮	-11.4607
泄	-11.4607
渡	-11.4607
滚	-11.4607
理查德	-11.4607
粮	-11.4607
糖	-11.4607
索马里	-11.4607
纳坦兹	-11.4607
罐	-11.4607
耳	-11.4607
蓄	-11.4607
薄	-11.4607
薯	-11.4607
衷	-11.4607
逼	-11.4607
里普利	-11.4607
金枪鱼	-11.4607
阐	-11.4607
顺便说	-11.4607
鹿	-11.4607
龙	-11.4607
▁expedition	-11.4607
▁opossum	-11.4607
▁unknow	-11.4607
众议院	-11.4607
口袋里	-11.4607
字符长度的	-11.4607
旺	-11.4607
税	-11.4607
笨	-11.4607
腰	-11.4607
阀	-11.4607
阿拉伯人	-11.4607
Frank	-11.4607
Olbermann	-11.4607
Remember	-11.4607
Thirty	-11.4607
craft	-11.4607
embodi	-11.4607
grocer	-11.4607
ification	-11.4607
nonymous	-11.4607
pparently	-11.4607
scream	-11.4607
▁Armstrong	-11.4607
▁Berlin	-11.4607
▁Bridge	-11.4607
▁College	-11.4607
▁England	-11.4607
▁Ethiopia	-11.4607
▁Evolution	-11.4607
▁Jewish	-11.4607
▁League	-11.4607
▁Lopez	-11.4607
▁Manhattan	-11.4607
▁NFL	-11.4607
▁Nairobi	-11.4607
▁Natanz	-11.4607
▁Netherlands	-11.4607
▁Octavio	-11.4607
▁Olympi	-11.4607
▁Otherwise	-11.4607
▁Revolution	-11.4607
▁Ripley	-11.4607
▁SOLA	-11.4607
▁Through	-11.4607
▁adulthood	-11.4607
▁advantage	-11.4607
▁advocat	-11.4607
▁agencies	-11.4607
▁ashamed	-11.4607
▁assistant	-11.4607
▁author	-11.4607
▁bicycle	-11.4607
▁breakthrough	-11.4607
▁chimpanzees	-11.4607
▁classroom	-11.4607
▁commercial	-11.4607
▁conference	-11.4607
▁configure	-11.4607
▁contribution	-11.4607
▁dancing	-11.4607
▁debris	-11.4607
▁drove	-11.4607
▁empath	-11.4607
▁encounter	-11.4607
▁enhance	-11.4607
▁enzymes	-11.4607
▁exclusion	-11.4607
▁fascinated	-11.4607
▁fifth	-11.4607
▁fishbowl	-11.4607
▁frequent	-11.4607
▁froze	-11.4607
▁garbage	-11.4607
▁girlfriend	-11.4607
▁glimpse	-11.4607
▁goddess	-11.4607
▁grenade	-11.4607
▁helmet	-11.4607
▁hungry	-11.4607
▁hydrant	-11.4607
▁illness	-11.4607
▁incarceration	-11.4607
▁injustice	-11.4607
▁invisible	-11.4607
▁jigsaw	-11.4607
▁judgment	-11.4607
▁kitchen	-11.4607
▁lecture	-11.4607
▁libraries	-11.4607
▁magnificent	-11.4607
▁medication	-11.4607
▁monarch	-11.4607
▁murder	-11.4607
▁neuroscience	-11.4607
▁overwhelmed	-11.4607
▁paradox	-11.4607
▁paralyzed	-11.4607
▁paramedic	-11.4607
▁parole	-11.4607
▁peculiar	-11.4607
▁phenomenon	-11.4607
▁refugee	-11.4607
▁regardless	-11.4607
▁regret	-11.4607
▁ridiculous	-11.4607
▁romantic	-11.4607
▁sacred	-11.4607
▁sleeve	-11.4607
▁soccer	-11.4607
▁specimen	-11.4607
▁squeez	-11.4607
▁studio	-11.4607
▁suicidal	-11.4607
▁synthesiz	-11.4607
▁treasure	-11.4607
▁trouble	-11.4607
▁valves	-11.4607
▁vibrating	-11.4607
▁zipper	-11.4607
一首诗	-11.4607
不舒服	-11.4607
乙	-11.4607
人工合成	-11.4607
会是什么样子	-11.4607
体能训练	-11.4607
喉	-11.4607
囊	-11.4607
基准线	-11.4607
廉	-11.4607
摔	-11.4607
暖	-11.4607
桌子上	-11.4607
棍	-11.4607
洪	-11.4607
牢	-11.4607
琴	-11.4607
的趋势	-11.4607
碟	-11.4607
神迹显现	-11.4607
纪录片	-11.4607
绒	-11.4607
腕	-11.4607
荷尔蒙	-11.4607
袋	-11.4607
记忆宫殿	-11.4607
详	-11.4607
贺	-11.4607
踩	-11.4607
轴	-11.4607
震撼	-11.4607
驰	-11.4607
黑猩猩	-11.4607
WiFi	-11.4607
graceful	-11.4607
sensitiv	-11.4607
堪	-11.4607
抹	-11.4607
虎	-11.4607
锁	-11.4607
俩	-11.4607
喷	-11.4607
喻	-11.4607
恤	-11.4607
拆	-11.4607
歉	-11.4607
猩	-11.4607
盲	-11.4607
纷	-11.4607
艳	-11.4607
辞	-11.4607
倦	-11.4607
耕	-11.4607
阔	-11.4607
乌	-11.4607
叹	-11.4607
捣	-11.4607
盗	-11.4607
罕	-11.4607
慕	-11.4607
扯	-11.4607
秋	-11.4607
陈	-11.4607
颗	-11.4607
罚	-11.4607
悬	-11.4607
腐	-11.4607
卓	-11.4607
祈	-11.4607
—	-11.6665
拥	-11.6958
伙	-11.7103
革	-11.7103
析	-11.7104
宗	-11.7105
尤	-11.7105
宜	-11.7105
附	-11.7105
阅	-11.7105
键	-11.7106
毕	-11.7106
企	-11.7106
虑	-11.7106
埃	-11.7106
荷	-11.7106
茨	-11.7106
♪	-11.7106
扭	-11.7106
骇	-11.7106
滴	-11.7106
吞	-11.7107
究	-11.7107
恨	-11.7107
肌	-11.7107
汗	-11.7107
’	-11.7107
咬	-11.7107
垂	-11.7107
扣	-11.7107
曝	-11.7107
紫	-11.7107
躲	-11.7107
迟	-11.7107
颈	-11.7107
剔	-11.7107
召	-11.7107
壳	-11.7107
寒	-11.7107
浓	-11.7107
萝	-11.7107
葛	-11.7107
诫	-11.7107
闲	-11.7107
颇	-11.7107
驯	-11.7107
劫	-11.7107
涌	-11.7107
稻	-11.7107
踢	-11.7107
伪	-11.7107
君	-11.7107
吵	-11.7107
孙	-11.7107
尘	-11.7107
尿	-11.7107
惨	-11.7107
戒	-11.7107
揭	-11.7107
氏	-11.7107
渗	-11.7107
炼	-11.7107
爵	-11.7107
砰	-11.7107
箭	-11.7107
虹	-11.7107
蚀	-11.7107
袍	-11.7107
遣	-11.7107
闯	-11.7107
陋	-11.7107
霍	-11.7107
颂	-11.7107
驳	-11.7107
抢	-11.7107
绑	-11.7107
雾	-11.7107
俱	-11.7107
咒	-11.7107
堡	-11.7107
帘	-11.7107
摘	-11.7107
晕	-11.7107
暑	-11.7107
朱	-11.7107
泉	-11.7107
溜	-11.7107
烤	-11.7107
牧	-11.7107
笼	-11.7107
筒	-11.7107
莓	-11.7107
虾	-11.7107
邮	-11.7107
酬	-11.7107
霸	-11.7107
骤	-11.7107
鲸	-11.7107
劣	-11.7107
崩	-11.7107
遥	-11.7107
割	-11.7107
吻	-11.7107
呐	-11.7107
巢	-11.7107
弓	-11.7107
忌	-11.7107
珊	-11.7107
葬	-11.7107
骸	-11.7107
鹅	-11.7107
屈	-11.7107
撰	-11.7107
晒	-11.7107
厄	-11.7107
嗨	-11.7107
嘉	-11.7107
恼	-11.7107
扑	-11.7107
莎	-11.7107
蜡	-11.7107
豪	-11.7107
隙	-11.7107
嘿	-11.7107
嫌	-11.7107
弯	-11.7107
邪	-11.7107
均	-12.0395
阳	-12.0435
震	-12.0436
衡	-12.0437
讨	-12.0438
突	-12.0438
瞬	-12.0438
疾	-12.0438
左	-12.0438
甚	-12.0439
邻	-12.0439
什	-12.0439
酱	-12.0439
乔	-12.0439
壁	-12.0439
渴	-12.0439
惧	-12.044
渐	-12.044
炸	-12.044
朗	-12.044
魂	-12.044
嬉	-12.044
愧	-12.044
趋	-12.044
巡	-12.044
殿	-12.044
渊	-12.044
睁	-12.044
胃	-12.044
仆	-12.044
俯	-12.044
削	-12.044
吐	-12.044
堵	-12.044
夷	-12.044
淋	-12.044
畏	-12.044
羞	-12.044
荡	-12.044
蛇	-12.044
赴	-12.044
锥	-12.044
惩	-12.044
溅	-12.044
剪	-12.044
喘	-12.044
喧	-12.044
帽	-12.044
弥	-12.044
忠	-12.044
恳	-12.044
悖	-12.044
擦	-12.044
攀	-12.044
炒	-12.044
爷	-12.044
甸	-12.044
盆	-12.044
瞧	-12.044
碧	-12.044
筋	-12.044
篮	-12.044
艘	-12.044
芽	-12.044
蔑	-12.044
驻	-12.044
鬼	-12.044
黎	-12.044
丸	-12.044
卸	-12.044
槽	-12.044
痴	-12.044
遮	-12.044
–	-12.044
侃	-12.044
偿	-12.044
凛	-12.044
函	-12.044
剖	-12.044
哑	-12.044
哼	-12.044
喵	-12.044
坡	-12.044
妄	-12.044
娘	-12.044
娶	-12.044
季	-12.044
寂	-12.044
岩	-12.044
惠	-12.044
抖	-12.044
挨	-12.044
捧	-12.044
掩	-12.044
敲	-12.044
斤	-12.044
旨	-12.044
昏	-12.044
晓	-12.044
桑	-12.044
梭	-12.044
泪	-12.044
泻	-12.044
淘	-12.044
澡	-12.044
烫	-12.044
猴	-12.044
碑	-12.044
碗	-12.044
祸	-12.044
窑	-12.044
舌	-12.044
舍	-12.044
舱	-12.044
薪	-12.044
蹲	-12.044
酵	-12.044
醇	-12.044
钮	-12.044
雀	-12.044
鸭	-12.044
竭	-12.044
捐	-12.044
湾	-12.044
滋	-12.044
雌	-12.044
僻	-12.044
嗅	-12.044
帐	-12.044
津	-12.044
牙	-12.044
牵	-12.044
狐	-12.044
瑕	-12.044
篷	-12.044
绷	-12.044
羟	-12.044
裸	-12.044
贪	-12.044
趟	-12.044
髓	-12.044
募	-12.044
呃	-12.044
呵	-12.044
咱	-12.044
懈	-12.044
扁	-12.044
汞	-12.044
爽	-12.044
缠	-12.044
醋	-12.044
栋	-12.044
韦	-12.044
馁	-12.044
囱	-12.044
挥	-12.5434
爆	-12.5436
尸	-12.5437
汽	-12.5438
己	-12.5438
颜	-12.5438
链	-12.5438
谢	-12.5439
沟	-12.5439
仰	-12.5439
择	-12.5439
翰	-12.5439
贫	-12.5439
拒	-12.5439
济	-12.5439
吁	-12.544
译	-12.544
账	-12.544
糕	-12.544
蹈	-12.544
储	-12.544
脆	-12.544
虐	-12.544
训	-12.544
灌	-12.544
睹	-12.544
撼	-12.544
汤	-12.544
橘	-12.544
逻	-12.544
啃	-12.544
奄	-12.544
奠	-12.544
媚	-12.544
寺	-12.544
庸	-12.544
弊	-12.544
插	-12.544
橡	-12.544
洼	-12.544
浑	-12.544
瓜	-12.544
皱	-12.544
磕	-12.544
漏	-12.544
熵	-12.544
裕	-12.544
仗	-12.544
叨	-12.544
喔	-12.544
嚷	-12.544
妮	-12.544
嵌	-12.544
彤	-12.544
惮	-12.544
拣	-12.544
甜	-12.544
窥	-12.544
粪	-12.544
绊	-12.544
刮	-12.544
剑	-12.544
垮	-12.544
契	-12.544
宿	-12.544
巅	-12.544
抒	-12.544
昌	-12.544
ê	-12.544
β	-12.544
⁄	-12.544
∇	-12.544
內	-12.544
凌	-12.544
刊	-12.544
删	-12.544
匀	-12.544
匆	-12.544
咔	-12.544
咽	-12.544
啉	-12.544
喋	-12.544
坛	-12.544
坠	-12.544
垒	-12.544
墓	-12.544
奢	-12.544
妓	-12.544
姓	-12.544
委	-12.544
帅	-12.544
帜	-12.544
忡	-12.544
怦	-12.544
慎	-12.544
懒	-12.544
扶	-12.544
拙	-12.544
掏	-12.544
掐	-12.544
揉	-12.544
搏	-12.544
斐	-12.544
斑	-12.544
朵	-12.544
栽	-12.544
横	-12.544
橱	-12.544
涝	-12.544
溯	-12.544
熄	-12.544
燕	-12.544
珀	-12.544
矮	-12.544
禅	-12.544
窄	-12.544
窍	-12.544
紊	-12.544
纱	-12.544
缝	-12.544
胰	-12.544
轰	-12.544
饮	-12.544
傻	-12.544
洒	-12.544
爪	-12.544
‧	-12.544
厢	-12.544
吼	-12.544
姿	-12.544
披	-12.544
拘	-12.544
撤	-12.544
琼	-12.544
皇	-12.544
眠	-12.544
籍	-12.544
侦	-12.544
唉	-12.544
烙	-12.544
凉	-12.544
吟	-12.544
孜	-12.544
汐	-12.544
缅	-13.5043
绸	-13.5044
绵	-13.5045
粹	-13.5046
稽	-13.5047
禽	-13.5048
禀	-13.5049
祭	-13.505
砾	-13.5051
瞰	-13.5052
瞄	-13.5053
盐	-13.5054
瘟	-13.5055
疵	-13.5056
疟	-13.5057
瑚	-13.5058
琪	-13.5059
猿	-13.506
狸	-13.5061
焰	-13.5062
焚	-13.5063
烁	-13.5064
漪	-13.5065
湛	-13.5066
淤	-13.5067
涡	-13.5068
涟	-13.5069
浃	-13.507
沼	-13.5071
汲	-13.5072
汰	-13.5073
氯	-13.5074
毯	-13.5075
殆	-13.5076
欠	-13.5077
橇	-13.5078
槌	-13.5079
榴	-13.508
榈	-13.5081
棺	-13.5082
桃	-13.5083
朽	-13.5084
敞	-13.5085
摁	-13.5086
掠	-13.5087
拽	-13.5088
拳	-13.5089
押	-13.509
惕	-13.5091
廷	-13.5092
庇	-13.5093
幢	-13.5094
川	-13.5095
崖	-13.5096
峻	-13.5097
屠	-13.5098
屎	-13.5099
寐	-13.51
宠	-13.5101
妥	-13.5102
妆	-13.5103
奸	-13.5104
央	-13.5105
夕	-13.5106
墟	-13.5107
坊	-13.5108
嗽	-13.5109
喇	-13.511
啤	-13.5111
哮	-13.5112
咳	-13.5113
咆	-13.5114
厦	-13.5115
厘	-13.5116
匿	-13.5117
债	-13.5118
侮	-13.5119
侏	-13.512
侄	-13.5121
伎	-13.5122
亢	-13.5123
亏	-13.5124
飓	-13.5125
颖	-13.5126
韧	-13.5127
靡	-13.5128
隘	-13.5129
鄂	-13.513
辟	-13.5131
躺	-13.5132
践	-13.5133
谬	-13.5134
谤	-13.5135
诽	-13.5136
诵	-13.5137
诠	-13.5138
诅	-13.5139
襞	-13.514
袜	-13.5141
蠕	-13.5142
葡	-13.5143
萄	-13.5144
莹	-13.5145
芝	-13.5146
膨	-13.5147
胀	-13.5148
肖	-13.5149
罩	-13.515
绳	-13.5151
稼	-13.5152
盈	-13.5153
瑰	-13.5154
玫	-13.5155
牺	-13.5156
燥	-13.5157
烛	-13.5158
滞	-13.5159
淆	-13.516
泌	-13.5161
沸	-13.5162
橙	-13.5163
栖	-13.5164
晰	-13.5165
旱	-13.5166
撑	-13.5167
摒	-13.5168
捡	-13.5169
挝	-13.517
姻	-13.5171
妨	-13.5172
奎	-13.5173
刹	-13.5174
券	-13.5175
兑	-13.5176
僚	-13.5177
亩	-13.5178
魅	-13.5179
饶	-13.518
饪	-13.5181
锋	-13.5182
辍	-13.5183
赂	-13.5184
贿	-13.5185
谴	-13.5186
蛮	-13.5187
藻	-13.5188
蔬	-13.5189
茄	-13.519
臆	-13.5191
脖	-13.5192
肺	-13.5193
耍	-13.5194
翼	-13.5195
翩	-13.5196
羽	-13.5197
署	-13.5198
罢	-13.5199
窜	-13.52
稣	-13.5201
砍	-13.5202
皂	-13.5203
畅	-13.5204
烷	-13.5205
炉	-13.5206
澳	-13.5207
潘	-13.5208
泊	-13.5209
氨	-13.521
榜	-13.5211
框	-13.5212
栩	-13.5213
栅	-13.5214
拾	-13.5215
拨	-13.5216
拐	-13.5217
憾	-13.5218
惫	-13.5219
厕	-13.522
兜	-13.5221
侍	-13.5222
仑	-13.5223
霉	-13.5224
陵	-13.5225
钥	-13.5226
躯	-13.5227
豫	-13.5228
讽	-13.5229
譬	-13.523
裹	-13.5231
芯	-13.5232
畜	-13.5233
瑜	-13.5234
牲	-13.5235
濒	-13.5236
涵	-13.5237
氓	-13.5238
枝	-13.5239
擎	-13.524
扼	-13.5241
恢	-13.5242
怨	-13.5243
弦	-13.5244
幽	-13.5245
尴	-13.5246
尬	-13.5247
宅	-13.5248
咨	-13.5249
咙	-13.525
叉	-13.5251
匙	-13.5252
伽	-13.5253
骄	-13.5254
酗	-13.5255
蚊	-13.5256
蕾	-13.5257
芭	-13.5258
肮	-13.5259
耶	-13.526
缸	-13.5261
纤	-13.5262
盔	-13.5263
溃	-13.5264
栓	-13.5265
宴	-13.5266
姑	-13.5267
叛	-13.5268
叙	-13.5269
冬	-13.527
亥	-13.5271
骼	-13.5272
驾	-13.5273
衍	-13.5274
荐	-13.5275
纠	-13.5276
督	-13.5277
盾	-13.5278
琐	-13.5279
煎	-13.528
泡	-13.5281
梁	-13.5282
拦	-13.5283
幼	-13.5284
寓	-13.5285
孕	-13.5286
噪	-13.5287
倡	-13.5288
骰	-13.5289
诡	-13.529
胆	-13.5291
痪	-13.5292
滤	-13.5293
棵	-13.5294
振	-13.5295
悯	-13.5296
庞	-13.5297
庆	-13.5298
哲	-13.5299
僧	-13.53
丈	-13.5301
⋯	-13.5302
鸦	-13.5303
饲	-13.5304
讶	-13.5305
萤	-13.5306
棘	-13.5307
敦	-13.5308
迅	-13.5309
苹	-13.531
胺	-13.5311
璃	-13.5312
玻	-13.5313
沮	-13.5314
梯	-13.5315
斥	-13.5316
啸	-13.5317
唐	-13.5318
卧	-13.5319
凝	-13.532
饿	-13.5321
韩	-13.5322
阱	-13.5323
诱	-13.5324
肚	-13.5325
痹	-13.5326
涯	-13.5327
摧	-13.5328
愚	-13.5329
宪	-13.533
坞	-13.5331
$	-13.5332
赋	-13.5333
综	-13.5334
犹	-13.5335
橄	-13.5336
榄	-13.5337
柿	-13.5338
怒	-13.5339
宫	-13.534
叔	-13.5341
丛	-13.5342
陌	-13.5343
睛	-13.5344
番	-13.5345
浏	-13.5346
棉	-13.5347
暂	-13.5348
掘	-13.5349
怜	-13.535
婴	-13.5351
嘞	-13.5352
剩	-13.5353
娱	-13.5354
姥	-13.5355
啡	-13.5356
隶	-13.5357
钢	-13.5358
遵	-13.5359
览	-13.536
瘫	-13.5361
擅	-13.5362
岗	-13.5363
耀	-13.5364
抑	-13.5365
呈	-13.5366
馈	-13.5367
贡	-13.5368
胁	-13.5369
粒	-13.537
碍	-13.5371
漂	-13.5372
忽	-13.5373
妇	-13.5374
丧	-13.5375
洁	-13.5376
毅	-13.5377
拯	-13.5378
倭	-13.5379
衔	-13.538
殖	-13.5381
惑	-13.5382
尺	-13.5383
Q	-13.5384
龄	-13.5385
仔	-13.5386
递	-13.5387
艰	-13.5388
孤	-13.5389
狮	-13.539
慧	-13.5391
怖	-13.5392
俄	-13.5393
矶	-13.5394
杉	-13.5395
姐	-13.5396
─	-13.5397
竞	-13.5398
础	-13.5399
讯	-13.54
聪	-13.5401
绍	-13.5402
殊	-13.5403
伟	-13.5404
Z	-13.5405
奏	-13.5406
渔	-13.5407
妹	-13.5408
鹫	-13.5409
符	-13.541
秃	-13.5411
祖	-13.5412
植	-13.5413
败	-13.5414
弃	-13.5415
秘	-13.5416
垃	-13.5417
圾	-13.5418
嫉	-13.5419
妒	-13.542
迹	-13.5421
责	-13.5422
疗	-13.5423
康	-13.5424
唯	-13.5425
络	-13.5425
肯	-13.5426
胞	-13.5427
承	-13.5428
察	-13.5429
努	-13.543
摄	-13.5431
盯	-13.5431
频	-13.5432
朋	-13.5433
妻	-13.5434
府	-13.5434
绩	-13.5435
否	-13.5435
趣	-13.5436
廊	-13.5437
忆	-13.5437
筑	-13.5437
怎	-13.5438
q	-13.5438
洋	-13.5438
晨	-13.5439
励	-13.5439
竟	-13.5439
邀	-13.5439
绪	-13.5439
培	-13.5439
嘲	-13.5439
兵	-13.5439
0	-13.5439
癌	-13.5439
袭	-13.5439
拟	-13.5439
丰	-13.5439
役	-13.5439
须	-13.544
斜	-13.544
措	-13.544
炭	-13.544
悉	-13.544
括	-13.544
允	-13.544
溢	-13.544
惯	-13.544
腊	-13.544
宰	-13.544
恭	-13.544
睾	-13.544
悄	-13.544
爸	-13.544
宇	-13.544
宙	-13.544
售	-13.544
沥	-13.544
疹	-13.544
v	-13.544
莉	-13.544
阁	-13.544
